{
    "token_map": {
        "<BOT>": 0,
        "<EOT>": 1,
        "</w>": 2,
        "'": 3,
        "n": 4,
        "W": 5,
        "A": 6,
        "b": 7,
        "v": 8,
        "g": 9,
        "T": 10,
        "o": 11,
        "c": 12,
        "U": 13,
        "q": 14,
        "K": 15,
        "L": 16,
        "&": 17,
        "Y": 18,
        "O": 19,
        "s": 20,
        "C": 21,
        " ": 22,
        "J": 23,
        "p": 24,
        "z": 25,
        "w": 26,
        "h": 27,
        "M": 28,
        "t": 29,
        "m": 30,
        "k": 31,
        "-": 32,
        "l": 33,
        "!": 34,
        "P": 35,
        "G": 36,
        ".": 37,
        "V": 38,
        "D": 39,
        "X": 40,
        "F": 41,
        "f": 42,
        "\n": 43,
        ";": 44,
        "E": 45,
        "x": 46,
        "$": 47,
        ":": 48,
        ",": 49,
        "a": 50,
        "y": 51,
        "B": 52,
        "u": 53,
        "?": 54,
        "j": 55,
        "3": 56,
        "d": 57,
        "N": 58,
        "r": 59,
        "R": 60,
        "i": 61,
        "S": 62,
        "Q": 63,
        "Z": 64,
        "e": 65,
        "I": 66,
        "H": 67,
        "e</w>": 68,
        " t": 69,
        ",</w>": 70,
        "t</w>": 71,
        "s</w>": 72,
        " th": 73,
        "d</w>": 74,
        " a": 75,
        "ou": 76,
        " s": 77,
        " h": 78,
        "er": 79,
        " m": 80,
        "y</w>": 81,
        "in": 82,
        " w": 83,
        ":</w>": 84,
        " b": 85,
        "or": 86,
        "o</w>": 87,
        ".</w>": 88,
        "en": 89,
        "\n\n": 90,
        "th": 91,
        " f": 92,
        "on": 93,
        "ll": 94,
        "ea": 95,
        "nd</w>": 96,
        " d": 97,
        " c": 98,
        " the</w>": 99,
        " n": 100,
        " l": 101,
        " y": 102,
        "is</w>": 103,
        "an": 104,
        "f</w>": 105,
        " o": 106,
        "es": 107,
        "r</w>": 108,
        " you": 109,
        " p": 110,
        "I</w>": 111,
        "ll</w>": 112,
        "\nT": 113,
        " to</w>": 114,
        "e,</w>": 115,
        "ow": 116,
        "ing": 117,
        "ar": 118,
        " and</w>": 119,
        "om": 120,
        ";</w>": 121,
        "er</w>": 122,
        " g": 123,
        "\nA": 124,
        "at</w>": 125,
        " of</w>": 126,
        " wi": 127,
        "th</w>": 128,
        " I</w>": 129,
        "or</w>": 130,
        " ha": 131,
        "ve</w>": 132,
        "\nTh": 133,
        " in": 134,
        " my</w>": 135,
        " i": 136,
        "\nW": 137,
        " a</w>": 138,
        "?</w>": 139,
        " no": 140,
        "ch": 141,
        " r": 142,
        "ing</w>": 143,
        "el": 144,
        "ed</w>": 145,
        "st</w>": 146,
        " sh": 147,
        "at": 148,
        "is": 149,
        " the": 150,
        " wh": 151,
        "!</w>": 152,
        " you</w>": 153,
        " in</w>": 154,
        "oo": 155,
        "en</w>": 156,
        "im": 157,
        "d,</w>": 158,
        "gh": 159,
        "ir": 160,
        " u": 161,
        "es</w>": 162,
        "'s</w>": 163,
        " that</w>": 164,
        "\nAnd</w>": 165,
        "s,</w>": 166,
        "on</w>": 167,
        " is</w>": 168,
        "ur": 169,
        "t,</w>": 170,
        "y,</w>": 171,
        "ou</w>": 172,
        "ow</w>": 173,
        "n</w>": 174,
        "e.</w>": 175,
        "\nWh": 176,
        " not</w>": 177,
        " k": 178,
        "ut</w>": 179,
        "ee": 180,
        "it": 181,
        " with</w>": 182,
        " ma": 183,
        "ld</w>": 184,
        "O:</w>": 185,
        "k</w>": 186,
        " be</w>": 187,
        " st": 188,
        " your</w>": 189,
        " pr": 190,
        "ere</w>": 191,
        "ch</w>": 192,
        "ke</w>": 193,
        "ear": 194,
        " his</w>": 195,
        "EN": 196,
        " for</w>": 197,
        "al": 198,
        "IN": 199,
        " li": 200,
        " him": 201,
        "st": 202,
        "\nH": 203,
        " have</w>": 204,
        "ce</w>": 205,
        "ra": 206,
        "S:</w>": 207,
        "ri": 208,
        "\nS": 209,
        " be": 210,
        "our</w>": 211,
        "\nI</w>": 212,
        "se</w>": 213,
        "\nB": 214,
        "\nI": 215,
        " it</w>": 216,
        "il": 217,
        " fa": 218,
        " he</w>": 219,
        " ar": 220,
        "AR": 221,
        "'d</w>": 222,
        "an</w>": 223,
        " this</w>": 224,
        "et</w>": 225,
        " me</w>": 226,
        "\nO": 227,
        " thou</w>": 228,
        "m</w>": 229,
        "ent": 230,
        "em": 231,
        "IO:</w>": 232,
        "ain": 233,
        " as</w>": 234,
        "all</w>": 235,
        "ec": 236,
        "ould</w>": 237,
        "ev": 238,
        "am": 239,
        "ay</w>": 240,
        "\nM": 241,
        " com": 242,
        " thy</w>": 243,
        "ic": 244,
        "ol": 245,
        "igh": 246,
        "et": 247,
        "le</w>": 248,
        " v": 249,
        "US:</w>": 250,
        " I": 251,
        "ro": 252,
        " but</w>": 253,
        "om</w>": 254,
        " will</w>": 255,
        "\nF": 256,
        "\nN": 257,
        "ore</w>": 258,
        "\nThe</w>": 259,
        "rea": 260,
        " su": 261,
        " wa": 262,
        "\nTo</w>": 263,
        " lo": 264,
        "ther": 265,
        "ood</w>": 266,
        "ir</w>": 267,
        " sp": 268,
        "ru": 269,
        "ther</w>": 270,
        "e:</w>": 271,
        "ed": 272,
        "p</w>": 273,
        "UC": 274,
        "e;</w>": 275,
        "ear</w>": 276,
        " ch": 277,
        " shall</w>": 278,
        " by</w>": 279,
        "ING": 280,
        " him</w>": 281,
        "ell": 282,
        " our</w>": 283,
        "ord": 284,
        " fr": 285,
        " C": 286,
        "ly</w>": 287,
        " so</w>": 288,
        " kn": 289,
        " un": 290,
        "AN": 291,
        "s.</w>": 292,
        " R": 293,
        "ul": 294,
        "id": 295,
        " all</w>": 296,
        "ER": 297,
        "\nY": 298,
        " on": 299,
        "OR": 300,
        " are</w>": 301,
        " we</w>": 302,
        "ef": 303,
        " mu": 304,
        "la": 305,
        " sa": 306,
        "t.</w>": 307,
        "o,</w>": 308,
        "sel": 309,
        "ew": 310,
        "\n\nC": 311,
        "est</w>": 312,
        "ET": 313,
        "\n\nP": 314,
        " '": 315,
        "\nThat</w>": 316,
        "ess</w>": 317,
        "ter": 318,
        "qu": 319,
        "and": 320,
        "our": 321,
        "ough": 322,
        " do</w>": 323,
        " con": 324,
        "'</w>": 325,
        " her</w>": 326,
        " no</w>": 327,
        "id</w>": 328,
        "'ll</w>": 329,
        "ich</w>": 330,
        "A:</w>": 331,
        " M": 332,
        " for": 333,
        " e": 334,
        "ell</w>": 335,
        " E": 336,
        "KING": 337,
        " an": 338,
        "y.</w>": 339,
        " what</w>": 340,
        " mo": 341,
        "us": 342,
        "ome</w>": 343,
        "ong": 344,
        "\n\nL": 345,
        "ent</w>": 346,
        " from</w>": 347,
        "oun": 348,
        " to": 349,
        " G": 350,
        " on</w>": 351,
        "\nC": 352,
        "e?</w>": 353,
        "un": 354,
        "IC": 355,
        "es,</w>": 356,
        " sir": 357,
        " bl": 358,
        "ff": 359,
        " do": 360,
        " B": 361,
        "ti": 362,
        "ep": 363,
        "OL": 364,
        " wor": 365,
        " good</w>": 366,
        " L": 367,
        " dea": 368,
        "\nBut</w>": 369,
        " at</w>": 370,
        " la": 371,
        "\n\nB": 372,
        " if</w>": 373,
        " H": 374,
        "\n\nS": 375,
        "ter</w>": 376,
        "IUS:</w>": 377,
        "KING</w>": 378,
        "ARD": 379,
        "end": 380,
        "\n\nG": 381,
        " hea": 382,
        " bo": 383,
        " sw": 384,
        "pp": 385,
        " hear": 386,
        "ous</w>": 387,
        "--": 388,
        " S": 389,
        " their</w>": 390,
        "ard": 391,
        " O": 392,
        "\n\nKING</w>": 393,
        " would</w>": 394,
        " was</w>": 395,
        " W": 396,
        "ES": 397,
        "\nL": 398,
        "ck": 399,
        "\nFor</w>": 400,
        "\n\nM": 401,
        "e!</w>": 402,
        " her": 403,
        "ot</w>": 404,
        "ag": 405,
        " up": 406,
        " they</w>": 407,
        " thee</w>": 408,
        "E:</w>": 409,
        "\nG": 410,
        " am</w>": 411,
        "e's</w>": 412,
        "ill</w>": 413,
        "sh": 414,
        "\nMy</w>": 415,
        "ake</w>": 416,
        " min": 417,
        "ON": 418,
        " T": 419,
        "\n\nD": 420,
        "iv": 421,
        "ive</w>": 422,
        "ble</w>": 423,
        " or</w>": 424,
        "row": 425,
        " V": 426,
        "ee</w>": 427,
        " more</w>": 428,
        " qu": 429,
        " ag": 430,
        " man": 431,
        "ish": 432,
        "ess": 433,
        "al</w>": 434,
        "ig": 435,
        "enc": 436,
        "en,</w>": 437,
        " j": 438,
        "op": 439,
        "\nAs</w>": 440,
        "\n\nF": 441,
        " she</w>": 442,
        "EL": 443,
        "est": 444,
        " hath</w>": 445,
        "out</w>": 446,
        " pl": 447,
        "ut": 448,
        "\nD": 449,
        "ran": 450,
        "ose</w>": 451,
        " tru": 452,
        "th,</w>": 453,
        " make</w>": 454,
        "ay": 455,
        " you,</w>": 456,
        " A": 457,
        "ight</w>": 458,
        "ARD</w>": 459,
        " po": 460,
        " thin": 461,
        "\nA</w>": 462,
        " ev": 463,
        " gra": 464,
        "ous": 465,
        "TIO:</w>": 466,
        " P": 467,
        " than</w>": 468,
        "it</w>": 469,
        "ss": 470,
        " ca": 471,
        "oul": 472,
        " so": 473,
        "in</w>": 474,
        "and</w>": 475,
        "ET:</w>": 476,
        "RO": 477,
        "I:</w>": 478,
        " were</w>": 479,
        "ery</w>": 480,
        " must</w>": 481,
        " may</w>": 482,
        "LI": 483,
        "d.</w>": 484,
        "um": 485,
        "erv": 486,
        "Y</w>": 487,
        "E</w>": 488,
        "\nP": 489,
        "ion": 490,
        "er,</w>": 491,
        "k,</w>": 492,
        "\nWhat</w>": 493,
        "end</w>": 494,
        "ow,</w>": 495,
        " lord": 496,
        " one</w>": 497,
        " them</w>": 498,
        "ay,</w>": 499,
        "irst</w>": 500,
        " lov": 501,
        " like</w>": 502,
        " ba": 503,
        " let</w>": 504,
        " tim": 505,
        "ill": 506,
        " pro": 507,
        " an</w>": 508,
        "eas": 509,
        "ts</w>": 510,
        " Y": 511,
        "ed,</w>": 512,
        "ame</w>": 513,
        " mad": 514,
        " king": 515,
        "s:</w>": 516,
        "\nHa": 517,
        " should</w>": 518,
        " dis": 519,
        "ord,</w>": 520,
        " bro": 521,
        "K:</w>": 522,
        " upon</w>": 523,
        " spea": 524,
        "ard</w>": 525,
        "t:</w>": 526,
        "ci": 527,
        "ICH": 528,
        "ith</w>": 529,
        " fri": 530,
        "AU": 531,
        " ther": 532,
        " 't": 533,
        " again": 534,
        " now</w>": 535,
        "ence</w>": 536,
        "\n\nDU": 537,
        "\n\nDUK": 538,
        "\n\nDUKE</w>": 539,
        "\nYou</w>": 540,
        " had</w>": 541,
        " me,</w>": 542,
        "ese</w>": 543,
        "bl": 544,
        "ough</w>": 545,
        "ng": 546,
        " know</w>": 547,
        " en": 548,
        " which</w>": 549,
        "ck</w>": 550,
        "ds</w>": 551,
        "ENTIO:</w>": 552,
        " hon": 553,
        " then</w>": 554,
        "ER:</w>": 555,
        "ry</w>": 556,
        "ord</w>": 557,
        "s;</w>": 558,
        "\nSh": 559,
        "ul</w>": 560,
        "ge</w>": 561,
        "\n\nH": 562,
        " how</w>": 563,
        "Y:</w>": 564,
        " mar": 565,
        " lea": 566,
        "INC": 567,
        "ted</w>": 568,
        "ure</w>": 569,
        "to</w>": 570,
        "\nIf</w>": 571,
        " us</w>": 572,
        "us</w>": 573,
        " can": 574,
        " when</w>": 575,
        " I'll</w>": 576,
        "ugh": 577,
        " did</w>": 578,
        " some</w>": 579,
        "ther,</w>": 580,
        " sl": 581,
        "ome,</w>": 582,
        " sir,</w>": 583,
        "IS": 584,
        "\n'": 585,
        " go": 586,
        " fl": 587,
        "AB": 588,
        "ad": 589,
        " here</w>": 590,
        " heav": 591,
        "\nWhich</w>": 592,
        " say</w>": 593,
        "anc": 594,
        " al": 595,
        " such</w>": 596,
        "urs": 597,
        " ab": 598,
        " lif": 599,
        "--</w>": 600,
        "ver": 601,
        "self</w>": 602,
        "at,</w>": 603,
        " come</w>": 604,
        " par": 605,
        " gent": 606,
        "\nHe</w>": 607,
        "der": 608,
        "eet</w>": 609,
        " per": 610,
        "ion</w>": 611,
        "own": 612,
        " loo": 613,
        "LO": 614,
        " RICH": 615,
        " RICHARD</w>": 616,
        " love</w>": 617,
        "\nIn</w>": 618,
        " ex": 619,
        "EST": 620,
        "\nWith</w>": 621,
        " yet</w>": 622,
        " these</w>": 623,
        "tr": 624,
        "UCH": 625,
        " ey": 626,
        "one</w>": 627,
        " pa": 628,
        " see</w>": 629,
        "er:</w>": 630,
        "\nOf</w>": 631,
        "\n\nGLO": 632,
        "\n\nGLOUC": 633,
        "\n\nGLOUCEST": 634,
        "\n\nGLOUCESTER:</w>": 635,
        "\n\nFirst</w>": 636,
        "eep": 637,
        "ond</w>": 638,
        "on,</w>": 639,
        "EEN": 640,
        " give</w>": 641,
        "ate</w>": 642,
        " des": 643,
        "ever</w>": 644,
        " take</w>": 645,
        "self": 646,
        " mor": 647,
        " ro": 648,
        "for": 649,
        " br": 650,
        "\nE": 651,
        " ear": 652,
        "cc": 653,
        "\nU": 654,
        "\n\nQ": 655,
        "\n\nQU": 656,
        "\n\nQUEEN": 657,
        "INCENTIO:</w>": 658,
        "ap": 659,
        "dy</w>": 660,
        " OF": 661,
        " OF</w>": 662,
        " can</w>": 663,
        "ers</w>": 664,
        "\n\nT": 665,
        "ing,</w>": 666,
        "UM": 667,
        " di": 668,
        "ast": 669,
        "AM": 670,
        " most</w>": 671,
        "ang": 672,
        "ful</w>": 673,
        " lord,</w>": 674,
        "ich": 675,
        "os": 676,
        "ell,</w>": 677,
        "eg": 678,
        "ue</w>": 679,
        " tw": 680,
        "iz": 681,
        " well</w>": 682,
        "t;</w>": 683,
        " brea": 684,
        "not</w>": 685,
        "ind</w>": 686,
        "ce,</w>": 687,
        "ain</w>": 688,
        " mea": 689,
        "\nR": 690,
        " bet": 691,
        "ENR": 692,
        "ENRY</w>": 693,
        " ow": 694,
        " wr": 695,
        " Go": 696,
        " go</w>": 697,
        " aw": 698,
        "\nth": 699,
        " tell</w>": 700,
        "y:</w>": 701,
        "\nThis</w>": 702,
        "\nSo</w>": 703,
        " them": 704,
        " out</w>": 705,
        "ORI": 706,
        "di": 707,
        " off": 708,
        " grea": 709,
        " VINCENTIO:</w>": 710,
        "y;</w>": 711,
        "eep</w>": 712,
        " new": 713,
        " K": 714,
        " up</w>": 715,
        " 'tis</w>": 716,
        "\nO</w>": 717,
        "\n\nQUEEN</w>": 718,
        " da": 719,
        "ES:</w>": 720,
        " F": 721,
        " Th": 722,
        "\nO,</w>": 723,
        " there</w>": 724,
        "ORK:</w>": 725,
        " mis": 726,
        "ks</w>": 727,
        " liv": 728,
        "\nHow</w>": 729,
        "ty</w>": 730,
        " never</w>": 731,
        " man</w>": 732,
        " too</w>": 733,
        " mine</w>": 734,
        " war": 735,
        " fo": 736,
        " made</w>": 737,
        "ign": 738,
        " ne": 739,
        "INIUS:</w>": 740,
        " see": 741,
        "all": 742,
        "ong</w>": 743,
        "\nIs</w>": 744,
        "\nThou</w>": 745,
        " comm": 746,
        " coun": 747,
        " thr": 748,
        "d;</w>": 749,
        "es.</w>": 750,
        "een</w>": 751,
        "ome": 752,
        " cl": 753,
        "s!</w>": 754,
        " all": 755,
        "'st</w>": 756,
        "ought</w>": 757,
        "\n'T": 758,
        "an:</w>": 759,
        "DW": 760,
        " hear</w>": 761,
        " time</w>": 762,
        " sc": 763,
        " thee,</w>": 764,
        " any</w>": 765,
        "lem": 766,
        "at's</w>": 767,
        "eng": 768,
        "\nYour</w>": 769,
        "\n\nPET": 770,
        " art</w>": 771,
        " much</w>": 772,
        "AL": 773,
        "\n\nLUC": 774,
        " D": 775,
        "\nIt</w>": 776,
        "el</w>": 777,
        "\nWe</w>": 778,
        "ity</w>": 779,
        " friend": 780,
        "are</w>": 781,
        "ELL": 782,
        " ra": 783,
        " him,</w>": 784,
        "econd</w>": 785,
        "ey</w>": 786,
        " with": 787,
        " doth</w>": 788,
        "own</w>": 789,
        "\nI'll</w>": 790,
        "old</w>": 791,
        " cannot</w>": 792,
        "\nWhy,</w>": 793,
        "OM": 794,
        "dw": 795,
        " du": 796,
        " ad": 797,
        "er.</w>": 798,
        " Wh": 799,
        "ant</w>": 800,
        " soul": 801,
        "AP": 802,
        "\n\nRO": 803,
        "\n\nROM": 804,
        "\n\nROME": 805,
        "\n\nROMEO:</w>": 806,
        "\n\nMEN": 807,
        "\n\nMENEN": 808,
        "\n\nMENENIUS:</w>": 809,
        "s?</w>": 810,
        " of": 811,
        " noble</w>": 812,
        " my": 813,
        " hand": 814,
        "itt": 815,
        "\nOr</w>": 816,
        " been</w>": 817,
        " gr": 818,
        "\n\nN": 819,
        "ness</w>": 820,
        "ice</w>": 821,
        "ant": 822,
        "ince</w>": 823,
        "TH": 824,
        "efore</w>": 825,
        " where</w>": 826,
        "use</w>": 827,
        "ound</w>": 828,
        "\n\nJ": 829,
        "\n\nPETR": 830,
        "\n\nPETRUCH": 831,
        "\n\nPETRUCHIO:</w>": 832,
        "\nw": 833,
        " very</w>": 834,
        "ak": 835,
        "as</w>": 836,
        "mp": 837,
        "'d,</w>": 838,
        " bea": 839,
        " res": 840,
        " think</w>": 841,
        "d:</w>": 842,
        "\nAn": 843,
        "if": 844,
        "\nBy</w>": 845,
        " app": 846,
        " nor</w>": 847,
        "ONT": 848,
        " speak</w>": 849,
        " rem": 850,
        "\nAy,</w>": 851,
        " el": 852,
        "ely</w>": 853,
        "a</w>": 854,
        "thing</w>": 855,
        "\n\nGR": 856,
        "der</w>": 857,
        " this": 858,
        "cl": 859,
        "ORIOL": 860,
        "ORIOLAN": 861,
        "st,</w>": 862,
        "\n\nSecond</w>": 863,
        " rep": 864,
        "sw": 865,
        " pres": 866,
        "\n\nCORIOLAN": 867,
        "\n\nCORIOLANUS:</w>": 868,
        " him.</w>": 869,
        "ust": 870,
        " Edw": 871,
        "eal": 872,
        "and,</w>": 873,
        " pla": 874,
        "en:</w>": 875,
        "ed.</w>": 876,
        " you.</w>": 877,
        " word": 878,
        "ew</w>": 879,
        "w</w>": 880,
        " fair</w>": 881,
        " beg": 882,
        " bef": 883,
        " being</w>": 884,
        "ither</w>": 885,
        " father": 886,
        " it.</w>": 887,
        "th.</w>": 888,
        "\nh": 889,
        "ings</w>": 890,
        "et,</w>": 891,
        " crow": 892,
        "il</w>": 893,
        " EDW": 894,
        "itiz": 895,
        " Mar": 896,
        " too": 897,
        "\nWhen</w>": 898,
        "\nWhere</w>": 899,
        " jo": 900,
        "\n\nAN": 901,
        "INA:</w>": 902,
        "'er</w>": 903,
        " bloo": 904,
        " cons": 905,
        " wif": 906,
        "D:</w>": 907,
        " II": 908,
        " III:</w>": 909,
        "\nThan</w>": 910,
        " N": 911,
        " wom": 912,
        " king</w>": 913,
        " own</w>": 914,
        " your": 915,
        " daugh": 916,
        " hast</w>": 917,
        "emp": 918,
        " foo": 919,
        "n,</w>": 920,
        "t?</w>": 921,
        "ise</w>": 922,
        "wic": 923,
        " cont": 924,
        "tion</w>": 925,
        " great</w>": 926,
        " J": 927,
        " am": 928,
        "arwic": 929,
        "li": 930,
        " who</w>": 931,
        "\nUn": 932,
        "ine</w>": 933,
        "ence,</w>": 934,
        "ish</w>": 935,
        "ud": 936,
        " str": 937,
        "e-": 938,
        "AD": 939,
        " YORK:</w>": 940,
        "ing.</w>": 941,
        " mer": 942,
        "\n\nV": 943,
        " sweet</w>": 944,
        "\n\nIS": 945,
        "\n\nISAB": 946,
        "\n\nISABELL": 947,
        "\n\nISABELLA:</w>": 948,
        "ile</w>": 949,
        "sp": 950,
        " it,</w>": 951,
        "es;</w>": 952,
        "ess,</w>": 953,
        " before</w>": 954,
        " fear": 955,
        " poor</w>": 956,
        "ir,</w>": 957,
        "ost": 958,
        "RAN": 959,
        "'t</w>": 960,
        " acc": 961,
        " not,</w>": 962,
        " re": 963,
        " ent": 964,
        " many</w>": 965,
        "eed": 966,
        " arm": 967,
        "re</w>": 968,
        " pow": 969,
        " me.</w>": 970,
        "AS": 971,
        " Warwic": 972,
        "\n\nJU": 973,
        "\n\nJULI": 974,
        "\n\nJULIET:</w>": 975,
        "\n\nLE": 976,
        "\n\nLEONT": 977,
        "\n\nLEONTES:</w>": 978,
        "eed</w>": 979,
        "y?</w>": 980,
        " well": 981,
        " old</w>": 982,
        "inc": 983,
        " Rich": 984,
        "iel": 985,
        " hel": 986,
        "ut,</w>": 987,
        "\nAnd,</w>": 988,
        " comp": 989,
        "one,</w>": 990,
        " hop": 991,
        " tra": 992,
        " will": 993,
        " tong": 994,
        "ter,</w>": 995,
        "ting</w>": 996,
        "\nHis</w>": 997,
        "ADY</w>": 998,
        "\nWho</w>": 999,
        "\n'Tis</w>": 1000,
        " sor": 1001,
        "age</w>": 1002,
        "ENC": 1003,
        "ENCE:</w>": 1004,
        "\n\nLADY</w>": 1005,
        " know": 1006,
        " rev": 1007,
        "emb": 1008,
        "less</w>": 1009,
        " tal": 1010,
        "ance</w>": 1011,
        "tt": 1012,
        "ious</w>": 1013,
        "\n\nR": 1014,
        " serv": 1015,
        "tion": 1016,
        " heart</w>": 1017,
        " chil": 1018,
        "tun": 1019,
        "k.</w>": 1020,
        "ie": 1021,
        " pe": 1022,
        "ire</w>": 1023,
        " ever</w>": 1024,
        " tri": 1025,
        "\n\nSIC": 1026,
        "\n\nSICINIUS:</w>": 1027,
        "ent,</w>": 1028,
        "ears</w>": 1029,
        " gri": 1030,
        " mast": 1031,
        "ves</w>": 1032,
        " cour": 1033,
        " litt": 1034,
        " leave</w>": 1035,
        " father</w>": 1036,
        " against</w>": 1037,
        "dr": 1038,
        " gentlem": 1039,
        " both</w>": 1040,
        "ide</w>": 1041,
        " foll": 1042,
        "ip": 1043,
        " those</w>": 1044,
        " goo": 1045,
        "y's</w>": 1046,
        "\nThen</w>": 1047,
        " young": 1048,
        "EY:</w>": 1049,
        "\n\nW": 1050,
        "arr": 1051,
        "\nCome,</w>": 1052,
        "ost</w>": 1053,
        "\n\nAU": 1054,
        "-m": 1055,
        " nigh": 1056,
        " now,</w>": 1057,
        " hol": 1058,
        "ect</w>": 1059,
        " look</w>": 1060,
        " pea": 1061,
        " let": 1062,
        "\n\nLUCIO:</w>": 1063,
        " gu": 1064,
        "\nb": 1065,
        "\ns": 1066,
        " bear</w>": 1067,
        "\nNo,</w>": 1068,
        " EDWARD</w>": 1069,
        " IV": 1070,
        " IV:</w>": 1071,
        " men</w>": 1072,
        " other</w>": 1073,
        " char": 1074,
        " high": 1075,
        " honour": 1076,
        " son": 1077,
        " than": 1078,
        "h,</w>": 1079,
        "ARD:</w>": 1080,
        " comes</w>": 1081,
        "\nNot</w>": 1082,
        " call</w>": 1083,
        " tr": 1084,
        " af": 1085,
        "urn": 1086,
        "\n\nCL": 1087,
        "\nLet</w>": 1088,
        "orn</w>": 1089,
        " thus</w>": 1090,
        " sub": 1091
    },
    "bpe_codes": {
        "[\"e\", \"</w>\"]": 0,
        "[\" \", \"t\"]": 1,
        "[\",\", \"</w>\"]": 2,
        "[\"t\", \"</w>\"]": 3,
        "[\"s\", \"</w>\"]": 4,
        "[\" t\", \"h\"]": 5,
        "[\"d\", \"</w>\"]": 6,
        "[\" \", \"a\"]": 7,
        "[\"o\", \"u\"]": 8,
        "[\" \", \"s\"]": 9,
        "[\" \", \"h\"]": 10,
        "[\"e\", \"r\"]": 11,
        "[\" \", \"m\"]": 12,
        "[\"y\", \"</w>\"]": 13,
        "[\"i\", \"n\"]": 14,
        "[\" \", \"w\"]": 15,
        "[\":\", \"</w>\"]": 16,
        "[\" \", \"b\"]": 17,
        "[\"o\", \"r\"]": 18,
        "[\"o\", \"</w>\"]": 19,
        "[\".\", \"</w>\"]": 20,
        "[\"e\", \"n\"]": 21,
        "[\"\\n\", \"\\n\"]": 22,
        "[\"t\", \"h\"]": 23,
        "[\" \", \"f\"]": 24,
        "[\"o\", \"n\"]": 25,
        "[\"l\", \"l\"]": 26,
        "[\"e\", \"a\"]": 27,
        "[\"n\", \"d</w>\"]": 28,
        "[\" \", \"d\"]": 29,
        "[\" \", \"c\"]": 30,
        "[\" th\", \"e</w>\"]": 31,
        "[\" \", \"n\"]": 32,
        "[\" \", \"l\"]": 33,
        "[\" \", \"y\"]": 34,
        "[\"i\", \"s</w>\"]": 35,
        "[\"a\", \"n\"]": 36,
        "[\"f\", \"</w>\"]": 37,
        "[\" \", \"o\"]": 38,
        "[\"e\", \"s\"]": 39,
        "[\"r\", \"</w>\"]": 40,
        "[\" y\", \"ou\"]": 41,
        "[\" \", \"p\"]": 42,
        "[\"I\", \"</w>\"]": 43,
        "[\"ll\", \"</w>\"]": 44,
        "[\"\\n\", \"T\"]": 45,
        "[\" t\", \"o</w>\"]": 46,
        "[\"e\", \",</w>\"]": 47,
        "[\"o\", \"w\"]": 48,
        "[\"in\", \"g\"]": 49,
        "[\"a\", \"r\"]": 50,
        "[\" a\", \"nd</w>\"]": 51,
        "[\"o\", \"m\"]": 52,
        "[\";\", \"</w>\"]": 53,
        "[\"er\", \"</w>\"]": 54,
        "[\" \", \"g\"]": 55,
        "[\"\\n\", \"A\"]": 56,
        "[\"a\", \"t</w>\"]": 57,
        "[\" o\", \"f</w>\"]": 58,
        "[\" w\", \"i\"]": 59,
        "[\"th\", \"</w>\"]": 60,
        "[\" \", \"I</w>\"]": 61,
        "[\"or\", \"</w>\"]": 62,
        "[\" h\", \"a\"]": 63,
        "[\"v\", \"e</w>\"]": 64,
        "[\"\\nT\", \"h\"]": 65,
        "[\" \", \"in\"]": 66,
        "[\" m\", \"y</w>\"]": 67,
        "[\" \", \"i\"]": 68,
        "[\"\\n\", \"W\"]": 69,
        "[\" a\", \"</w>\"]": 70,
        "[\"?\", \"</w>\"]": 71,
        "[\" n\", \"o\"]": 72,
        "[\"c\", \"h\"]": 73,
        "[\" \", \"r\"]": 74,
        "[\"ing\", \"</w>\"]": 75,
        "[\"e\", \"l\"]": 76,
        "[\"e\", \"d</w>\"]": 77,
        "[\"s\", \"t</w>\"]": 78,
        "[\" s\", \"h\"]": 79,
        "[\"a\", \"t\"]": 80,
        "[\"i\", \"s\"]": 81,
        "[\" th\", \"e\"]": 82,
        "[\" w\", \"h\"]": 83,
        "[\"!\", \"</w>\"]": 84,
        "[\" you\", \"</w>\"]": 85,
        "[\" in\", \"</w>\"]": 86,
        "[\"o\", \"o\"]": 87,
        "[\"en\", \"</w>\"]": 88,
        "[\"i\", \"m\"]": 89,
        "[\"d\", \",</w>\"]": 90,
        "[\"g\", \"h\"]": 91,
        "[\"i\", \"r\"]": 92,
        "[\" \", \"u\"]": 93,
        "[\"e\", \"s</w>\"]": 94,
        "[\"'\", \"s</w>\"]": 95,
        "[\" th\", \"at</w>\"]": 96,
        "[\"\\nA\", \"nd</w>\"]": 97,
        "[\"s\", \",</w>\"]": 98,
        "[\"on\", \"</w>\"]": 99,
        "[\" \", \"is</w>\"]": 100,
        "[\"u\", \"r\"]": 101,
        "[\"t\", \",</w>\"]": 102,
        "[\"y\", \",</w>\"]": 103,
        "[\"ou\", \"</w>\"]": 104,
        "[\"ow\", \"</w>\"]": 105,
        "[\"n\", \"</w>\"]": 106,
        "[\"e\", \".</w>\"]": 107,
        "[\"\\nW\", \"h\"]": 108,
        "[\" no\", \"t</w>\"]": 109,
        "[\" \", \"k\"]": 110,
        "[\"u\", \"t</w>\"]": 111,
        "[\"e\", \"e\"]": 112,
        "[\"i\", \"t\"]": 113,
        "[\" wi\", \"th</w>\"]": 114,
        "[\" m\", \"a\"]": 115,
        "[\"l\", \"d</w>\"]": 116,
        "[\"O\", \":</w>\"]": 117,
        "[\"k\", \"</w>\"]": 118,
        "[\" b\", \"e</w>\"]": 119,
        "[\" s\", \"t\"]": 120,
        "[\" you\", \"r</w>\"]": 121,
        "[\" p\", \"r\"]": 122,
        "[\"er\", \"e</w>\"]": 123,
        "[\"ch\", \"</w>\"]": 124,
        "[\"k\", \"e</w>\"]": 125,
        "[\"ea\", \"r\"]": 126,
        "[\" h\", \"is</w>\"]": 127,
        "[\"E\", \"N\"]": 128,
        "[\" f\", \"or</w>\"]": 129,
        "[\"a\", \"l\"]": 130,
        "[\"I\", \"N\"]": 131,
        "[\" l\", \"i\"]": 132,
        "[\" h\", \"im\"]": 133,
        "[\"s\", \"t\"]": 134,
        "[\"\\n\", \"H\"]": 135,
        "[\" ha\", \"ve</w>\"]": 136,
        "[\"c\", \"e</w>\"]": 137,
        "[\"r\", \"a\"]": 138,
        "[\"S\", \":</w>\"]": 139,
        "[\"r\", \"i\"]": 140,
        "[\"\\n\", \"S\"]": 141,
        "[\" b\", \"e\"]": 142,
        "[\"ou\", \"r</w>\"]": 143,
        "[\"\\n\", \"I</w>\"]": 144,
        "[\"s\", \"e</w>\"]": 145,
        "[\"\\n\", \"B\"]": 146,
        "[\"\\n\", \"I\"]": 147,
        "[\" i\", \"t</w>\"]": 148,
        "[\"i\", \"l\"]": 149,
        "[\" f\", \"a\"]": 150,
        "[\" h\", \"e</w>\"]": 151,
        "[\" a\", \"r\"]": 152,
        "[\"A\", \"R\"]": 153,
        "[\"'\", \"d</w>\"]": 154,
        "[\"an\", \"</w>\"]": 155,
        "[\" th\", \"is</w>\"]": 156,
        "[\"e\", \"t</w>\"]": 157,
        "[\" m\", \"e</w>\"]": 158,
        "[\"\\n\", \"O\"]": 159,
        "[\" th\", \"ou</w>\"]": 160,
        "[\"m\", \"</w>\"]": 161,
        "[\"en\", \"t\"]": 162,
        "[\"e\", \"m\"]": 163,
        "[\"I\", \"O:</w>\"]": 164,
        "[\"a\", \"in\"]": 165,
        "[\" a\", \"s</w>\"]": 166,
        "[\"a\", \"ll</w>\"]": 167,
        "[\"e\", \"c\"]": 168,
        "[\"ou\", \"ld</w>\"]": 169,
        "[\"e\", \"v\"]": 170,
        "[\"a\", \"m\"]": 171,
        "[\"a\", \"y</w>\"]": 172,
        "[\"\\n\", \"M\"]": 173,
        "[\" c\", \"om\"]": 174,
        "[\" th\", \"y</w>\"]": 175,
        "[\"i\", \"c\"]": 176,
        "[\"o\", \"l\"]": 177,
        "[\"i\", \"gh\"]": 178,
        "[\"e\", \"t\"]": 179,
        "[\"l\", \"e</w>\"]": 180,
        "[\" \", \"v\"]": 181,
        "[\"U\", \"S:</w>\"]": 182,
        "[\" \", \"I\"]": 183,
        "[\"r\", \"o\"]": 184,
        "[\" b\", \"ut</w>\"]": 185,
        "[\"om\", \"</w>\"]": 186,
        "[\" wi\", \"ll</w>\"]": 187,
        "[\"\\n\", \"F\"]": 188,
        "[\"\\n\", \"N\"]": 189,
        "[\"or\", \"e</w>\"]": 190,
        "[\"\\nTh\", \"e</w>\"]": 191,
        "[\"r\", \"ea\"]": 192,
        "[\" s\", \"u\"]": 193,
        "[\" w\", \"a\"]": 194,
        "[\"\\nT\", \"o</w>\"]": 195,
        "[\" l\", \"o\"]": 196,
        "[\"th\", \"er\"]": 197,
        "[\"oo\", \"d</w>\"]": 198,
        "[\"i\", \"r</w>\"]": 199,
        "[\" s\", \"p\"]": 200,
        "[\"r\", \"u\"]": 201,
        "[\"th\", \"er</w>\"]": 202,
        "[\"e\", \":</w>\"]": 203,
        "[\"e\", \"d\"]": 204,
        "[\"p\", \"</w>\"]": 205,
        "[\"U\", \"C\"]": 206,
        "[\"e\", \";</w>\"]": 207,
        "[\"ea\", \"r</w>\"]": 208,
        "[\" c\", \"h\"]": 209,
        "[\" sh\", \"all</w>\"]": 210,
        "[\" b\", \"y</w>\"]": 211,
        "[\"IN\", \"G\"]": 212,
        "[\" him\", \"</w>\"]": 213,
        "[\"e\", \"ll\"]": 214,
        "[\" \", \"our</w>\"]": 215,
        "[\"or\", \"d\"]": 216,
        "[\" f\", \"r\"]": 217,
        "[\" \", \"C\"]": 218,
        "[\"l\", \"y</w>\"]": 219,
        "[\" s\", \"o</w>\"]": 220,
        "[\" k\", \"n\"]": 221,
        "[\" u\", \"n\"]": 222,
        "[\"A\", \"N\"]": 223,
        "[\"s\", \".</w>\"]": 224,
        "[\" \", \"R\"]": 225,
        "[\"u\", \"l\"]": 226,
        "[\"i\", \"d\"]": 227,
        "[\" a\", \"ll</w>\"]": 228,
        "[\"E\", \"R\"]": 229,
        "[\"\\n\", \"Y\"]": 230,
        "[\" \", \"on\"]": 231,
        "[\"O\", \"R\"]": 232,
        "[\" ar\", \"e</w>\"]": 233,
        "[\" w\", \"e</w>\"]": 234,
        "[\"e\", \"f\"]": 235,
        "[\" m\", \"u\"]": 236,
        "[\"l\", \"a\"]": 237,
        "[\" s\", \"a\"]": 238,
        "[\"t\", \".</w>\"]": 239,
        "[\"o\", \",</w>\"]": 240,
        "[\"s\", \"el\"]": 241,
        "[\"e\", \"w\"]": 242,
        "[\"\\n\\n\", \"C\"]": 243,
        "[\"es\", \"t</w>\"]": 244,
        "[\"E\", \"T\"]": 245,
        "[\"\\n\\n\", \"P\"]": 246,
        "[\" \", \"'\"]": 247,
        "[\"\\nTh\", \"at</w>\"]": 248,
        "[\"es\", \"s</w>\"]": 249,
        "[\"t\", \"er\"]": 250,
        "[\"q\", \"u\"]": 251,
        "[\"an\", \"d\"]": 252,
        "[\"ou\", \"r\"]": 253,
        "[\"ou\", \"gh\"]": 254,
        "[\" d\", \"o</w>\"]": 255,
        "[\" c\", \"on\"]": 256,
        "[\"'\", \"</w>\"]": 257,
        "[\" h\", \"er</w>\"]": 258,
        "[\" n\", \"o</w>\"]": 259,
        "[\"i\", \"d</w>\"]": 260,
        "[\"'\", \"ll</w>\"]": 261,
        "[\"i\", \"ch</w>\"]": 262,
        "[\"A\", \":</w>\"]": 263,
        "[\" \", \"M\"]": 264,
        "[\" f\", \"or\"]": 265,
        "[\" \", \"e\"]": 266,
        "[\"e\", \"ll</w>\"]": 267,
        "[\" \", \"E\"]": 268,
        "[\"K\", \"ING\"]": 269,
        "[\" a\", \"n\"]": 270,
        "[\"y\", \".</w>\"]": 271,
        "[\" wh\", \"at</w>\"]": 272,
        "[\" m\", \"o\"]": 273,
        "[\"u\", \"s\"]": 274,
        "[\"om\", \"e</w>\"]": 275,
        "[\"on\", \"g\"]": 276,
        "[\"\\n\\n\", \"L\"]": 277,
        "[\"en\", \"t</w>\"]": 278,
        "[\" fr\", \"om</w>\"]": 279,
        "[\"ou\", \"n\"]": 280,
        "[\" t\", \"o\"]": 281,
        "[\" \", \"G\"]": 282,
        "[\" \", \"on</w>\"]": 283,
        "[\"\\n\", \"C\"]": 284,
        "[\"e\", \"?</w>\"]": 285,
        "[\"u\", \"n\"]": 286,
        "[\"I\", \"C\"]": 287,
        "[\"es\", \",</w>\"]": 288,
        "[\" s\", \"ir\"]": 289,
        "[\" b\", \"l\"]": 290,
        "[\"f\", \"f\"]": 291,
        "[\" d\", \"o\"]": 292,
        "[\" \", \"B\"]": 293,
        "[\"t\", \"i\"]": 294,
        "[\"e\", \"p\"]": 295,
        "[\"O\", \"L\"]": 296,
        "[\" w\", \"or\"]": 297,
        "[\" g\", \"ood</w>\"]": 298,
        "[\" \", \"L\"]": 299,
        "[\" d\", \"ea\"]": 300,
        "[\"\\nB\", \"ut</w>\"]": 301,
        "[\" a\", \"t</w>\"]": 302,
        "[\" l\", \"a\"]": 303,
        "[\"\\n\\n\", \"B\"]": 304,
        "[\" i\", \"f</w>\"]": 305,
        "[\" \", \"H\"]": 306,
        "[\"\\n\\n\", \"S\"]": 307,
        "[\"t\", \"er</w>\"]": 308,
        "[\"I\", \"US:</w>\"]": 309,
        "[\"KING\", \"</w>\"]": 310,
        "[\"AR\", \"D\"]": 311,
        "[\"en\", \"d\"]": 312,
        "[\"\\n\\n\", \"G\"]": 313,
        "[\" h\", \"ea\"]": 314,
        "[\" b\", \"o\"]": 315,
        "[\" s\", \"w\"]": 316,
        "[\"p\", \"p\"]": 317,
        "[\" h\", \"ear\"]": 318,
        "[\"ou\", \"s</w>\"]": 319,
        "[\"-\", \"-\"]": 320,
        "[\" \", \"S\"]": 321,
        "[\" the\", \"ir</w>\"]": 322,
        "[\"ar\", \"d\"]": 323,
        "[\" \", \"O\"]": 324,
        "[\"\\n\\n\", \"KING</w>\"]": 325,
        "[\" w\", \"ould</w>\"]": 326,
        "[\" wa\", \"s</w>\"]": 327,
        "[\" \", \"W\"]": 328,
        "[\"E\", \"S\"]": 329,
        "[\"\\n\", \"L\"]": 330,
        "[\"c\", \"k\"]": 331,
        "[\"\\nF\", \"or</w>\"]": 332,
        "[\"\\n\\n\", \"M\"]": 333,
        "[\"e\", \"!</w>\"]": 334,
        "[\" h\", \"er\"]": 335,
        "[\"o\", \"t</w>\"]": 336,
        "[\"a\", \"g\"]": 337,
        "[\" u\", \"p\"]": 338,
        "[\" the\", \"y</w>\"]": 339,
        "[\" the\", \"e</w>\"]": 340,
        "[\"E\", \":</w>\"]": 341,
        "[\"\\n\", \"G\"]": 342,
        "[\" a\", \"m</w>\"]": 343,
        "[\"e\", \"'s</w>\"]": 344,
        "[\"i\", \"ll</w>\"]": 345,
        "[\"s\", \"h\"]": 346,
        "[\"\\nM\", \"y</w>\"]": 347,
        "[\"a\", \"ke</w>\"]": 348,
        "[\" m\", \"in\"]": 349,
        "[\"O\", \"N\"]": 350,
        "[\" \", \"T\"]": 351,
        "[\"\\n\\n\", \"D\"]": 352,
        "[\"i\", \"v\"]": 353,
        "[\"i\", \"ve</w>\"]": 354,
        "[\"b\", \"le</w>\"]": 355,
        "[\" \", \"or</w>\"]": 356,
        "[\"r\", \"ow\"]": 357,
        "[\" \", \"V\"]": 358,
        "[\"e\", \"e</w>\"]": 359,
        "[\" m\", \"ore</w>\"]": 360,
        "[\" \", \"qu\"]": 361,
        "[\" a\", \"g\"]": 362,
        "[\" m\", \"an\"]": 363,
        "[\"is\", \"h\"]": 364,
        "[\"es\", \"s\"]": 365,
        "[\"al\", \"</w>\"]": 366,
        "[\"i\", \"g\"]": 367,
        "[\"en\", \"c\"]": 368,
        "[\"en\", \",</w>\"]": 369,
        "[\" \", \"j\"]": 370,
        "[\"o\", \"p\"]": 371,
        "[\"\\nA\", \"s</w>\"]": 372,
        "[\"\\n\\n\", \"F\"]": 373,
        "[\" sh\", \"e</w>\"]": 374,
        "[\"E\", \"L\"]": 375,
        "[\"es\", \"t\"]": 376,
        "[\" ha\", \"th</w>\"]": 377,
        "[\"ou\", \"t</w>\"]": 378,
        "[\" p\", \"l\"]": 379,
        "[\"u\", \"t\"]": 380,
        "[\"\\n\", \"D\"]": 381,
        "[\"r\", \"an\"]": 382,
        "[\"o\", \"se</w>\"]": 383,
        "[\" t\", \"ru\"]": 384,
        "[\"th\", \",</w>\"]": 385,
        "[\" ma\", \"ke</w>\"]": 386,
        "[\"a\", \"y\"]": 387,
        "[\" you\", \",</w>\"]": 388,
        "[\" \", \"A\"]": 389,
        "[\"igh\", \"t</w>\"]": 390,
        "[\"ARD\", \"</w>\"]": 391,
        "[\" p\", \"o\"]": 392,
        "[\" th\", \"in\"]": 393,
        "[\"\\nA\", \"</w>\"]": 394,
        "[\" \", \"ev\"]": 395,
        "[\" g\", \"ra\"]": 396,
        "[\"ou\", \"s\"]": 397,
        "[\"T\", \"IO:</w>\"]": 398,
        "[\" \", \"P\"]": 399,
        "[\" th\", \"an</w>\"]": 400,
        "[\"i\", \"t</w>\"]": 401,
        "[\"s\", \"s\"]": 402,
        "[\" c\", \"a\"]": 403,
        "[\"ou\", \"l\"]": 404,
        "[\" s\", \"o\"]": 405,
        "[\"in\", \"</w>\"]": 406,
        "[\"a\", \"nd</w>\"]": 407,
        "[\"ET\", \":</w>\"]": 408,
        "[\"R\", \"O\"]": 409,
        "[\"I\", \":</w>\"]": 410,
        "[\" w\", \"ere</w>\"]": 411,
        "[\"er\", \"y</w>\"]": 412,
        "[\" mu\", \"st</w>\"]": 413,
        "[\" ma\", \"y</w>\"]": 414,
        "[\"L\", \"I\"]": 415,
        "[\"d\", \".</w>\"]": 416,
        "[\"u\", \"m\"]": 417,
        "[\"er\", \"v\"]": 418,
        "[\"Y\", \"</w>\"]": 419,
        "[\"E\", \"</w>\"]": 420,
        "[\"\\n\", \"P\"]": 421,
        "[\"i\", \"on\"]": 422,
        "[\"er\", \",</w>\"]": 423,
        "[\"k\", \",</w>\"]": 424,
        "[\"\\nWh\", \"at</w>\"]": 425,
        "[\"en\", \"d</w>\"]": 426,
        "[\"ow\", \",</w>\"]": 427,
        "[\" l\", \"ord\"]": 428,
        "[\" on\", \"e</w>\"]": 429,
        "[\" the\", \"m</w>\"]": 430,
        "[\"a\", \"y,</w>\"]": 431,
        "[\"ir\", \"st</w>\"]": 432,
        "[\" lo\", \"v\"]": 433,
        "[\" li\", \"ke</w>\"]": 434,
        "[\" b\", \"a\"]": 435,
        "[\" l\", \"et</w>\"]": 436,
        "[\" t\", \"im\"]": 437,
        "[\"i\", \"ll\"]": 438,
        "[\" pr\", \"o\"]": 439,
        "[\" a\", \"n</w>\"]": 440,
        "[\"ea\", \"s\"]": 441,
        "[\"t\", \"s</w>\"]": 442,
        "[\" \", \"Y\"]": 443,
        "[\"e\", \"d,</w>\"]": 444,
        "[\"am\", \"e</w>\"]": 445,
        "[\" ma\", \"d\"]": 446,
        "[\" k\", \"ing\"]": 447,
        "[\"s\", \":</w>\"]": 448,
        "[\"\\nH\", \"a\"]": 449,
        "[\" sh\", \"ould</w>\"]": 450,
        "[\" d\", \"is\"]": 451,
        "[\"or\", \"d,</w>\"]": 452,
        "[\" b\", \"ro\"]": 453,
        "[\"K\", \":</w>\"]": 454,
        "[\" up\", \"on</w>\"]": 455,
        "[\" sp\", \"ea\"]": 456,
        "[\"ar\", \"d</w>\"]": 457,
        "[\"t\", \":</w>\"]": 458,
        "[\"c\", \"i\"]": 459,
        "[\"IC\", \"H\"]": 460,
        "[\"i\", \"th</w>\"]": 461,
        "[\" f\", \"ri\"]": 462,
        "[\"A\", \"U\"]": 463,
        "[\" th\", \"er\"]": 464,
        "[\" '\", \"t\"]": 465,
        "[\" ag\", \"ain\"]": 466,
        "[\" n\", \"ow</w>\"]": 467,
        "[\"en\", \"ce</w>\"]": 468,
        "[\"\\n\\nD\", \"U\"]": 469,
        "[\"\\n\\nDU\", \"K\"]": 470,
        "[\"\\n\\nDUK\", \"E</w>\"]": 471,
        "[\"\\nY\", \"ou</w>\"]": 472,
        "[\" ha\", \"d</w>\"]": 473,
        "[\" m\", \"e,</w>\"]": 474,
        "[\"es\", \"e</w>\"]": 475,
        "[\"b\", \"l\"]": 476,
        "[\"ough\", \"</w>\"]": 477,
        "[\"n\", \"g\"]": 478,
        "[\" kn\", \"ow</w>\"]": 479,
        "[\" \", \"en\"]": 480,
        "[\" wh\", \"ich</w>\"]": 481,
        "[\"c\", \"k</w>\"]": 482,
        "[\"d\", \"s</w>\"]": 483,
        "[\"EN\", \"TIO:</w>\"]": 484,
        "[\" h\", \"on\"]": 485,
        "[\" th\", \"en</w>\"]": 486,
        "[\"ER\", \":</w>\"]": 487,
        "[\"r\", \"y</w>\"]": 488,
        "[\"or\", \"d</w>\"]": 489,
        "[\"s\", \";</w>\"]": 490,
        "[\"\\nS\", \"h\"]": 491,
        "[\"ul\", \"</w>\"]": 492,
        "[\"g\", \"e</w>\"]": 493,
        "[\"\\n\\n\", \"H\"]": 494,
        "[\" h\", \"ow</w>\"]": 495,
        "[\"Y\", \":</w>\"]": 496,
        "[\" m\", \"ar\"]": 497,
        "[\" l\", \"ea\"]": 498,
        "[\"IN\", \"C\"]": 499,
        "[\"t\", \"ed</w>\"]": 500,
        "[\"ur\", \"e</w>\"]": 501,
        "[\"t\", \"o</w>\"]": 502,
        "[\"\\nI\", \"f</w>\"]": 503,
        "[\" u\", \"s</w>\"]": 504,
        "[\"u\", \"s</w>\"]": 505,
        "[\" c\", \"an\"]": 506,
        "[\" wh\", \"en</w>\"]": 507,
        "[\" I\", \"'ll</w>\"]": 508,
        "[\"u\", \"gh\"]": 509,
        "[\" d\", \"id</w>\"]": 510,
        "[\" s\", \"ome</w>\"]": 511,
        "[\"ther\", \",</w>\"]": 512,
        "[\" s\", \"l\"]": 513,
        "[\"om\", \"e,</w>\"]": 514,
        "[\" sir\", \",</w>\"]": 515,
        "[\"I\", \"S\"]": 516,
        "[\"\\n\", \"'\"]": 517,
        "[\" g\", \"o\"]": 518,
        "[\" f\", \"l\"]": 519,
        "[\"A\", \"B\"]": 520,
        "[\"a\", \"d\"]": 521,
        "[\" h\", \"ere</w>\"]": 522,
        "[\" hea\", \"v\"]": 523,
        "[\"\\nWh\", \"ich</w>\"]": 524,
        "[\" s\", \"ay</w>\"]": 525,
        "[\"an\", \"c\"]": 526,
        "[\" a\", \"l\"]": 527,
        "[\" su\", \"ch</w>\"]": 528,
        "[\"ur\", \"s\"]": 529,
        "[\" a\", \"b\"]": 530,
        "[\" li\", \"f\"]": 531,
        "[\"--\", \"</w>\"]": 532,
        "[\"v\", \"er\"]": 533,
        "[\"sel\", \"f</w>\"]": 534,
        "[\"at\", \",</w>\"]": 535,
        "[\" com\", \"e</w>\"]": 536,
        "[\" p\", \"ar\"]": 537,
        "[\" g\", \"ent\"]": 538,
        "[\"\\nH\", \"e</w>\"]": 539,
        "[\"d\", \"er\"]": 540,
        "[\"ee\", \"t</w>\"]": 541,
        "[\" p\", \"er\"]": 542,
        "[\"i\", \"on</w>\"]": 543,
        "[\"ow\", \"n\"]": 544,
        "[\" l\", \"oo\"]": 545,
        "[\"L\", \"O\"]": 546,
        "[\" R\", \"ICH\"]": 547,
        "[\" RICH\", \"ARD</w>\"]": 548,
        "[\" lo\", \"ve</w>\"]": 549,
        "[\"\\nI\", \"n</w>\"]": 550,
        "[\" e\", \"x\"]": 551,
        "[\"ES\", \"T\"]": 552,
        "[\"\\nW\", \"ith</w>\"]": 553,
        "[\" y\", \"et</w>\"]": 554,
        "[\" th\", \"ese</w>\"]": 555,
        "[\"t\", \"r\"]": 556,
        "[\"UC\", \"H\"]": 557,
        "[\" e\", \"y\"]": 558,
        "[\"on\", \"e</w>\"]": 559,
        "[\" p\", \"a\"]": 560,
        "[\" s\", \"ee</w>\"]": 561,
        "[\"er\", \":</w>\"]": 562,
        "[\"\\nO\", \"f</w>\"]": 563,
        "[\"\\n\\nG\", \"LO\"]": 564,
        "[\"\\n\\nGLO\", \"UC\"]": 565,
        "[\"\\n\\nGLOUC\", \"EST\"]": 566,
        "[\"\\n\\nGLOUCEST\", \"ER:</w>\"]": 567,
        "[\"\\n\\nF\", \"irst</w>\"]": 568,
        "[\"ee\", \"p\"]": 569,
        "[\"on\", \"d</w>\"]": 570,
        "[\"on\", \",</w>\"]": 571,
        "[\"E\", \"EN\"]": 572,
        "[\" g\", \"ive</w>\"]": 573,
        "[\"at\", \"e</w>\"]": 574,
        "[\" d\", \"es\"]": 575,
        "[\"ev\", \"er</w>\"]": 576,
        "[\" t\", \"ake</w>\"]": 577,
        "[\"sel\", \"f\"]": 578,
        "[\" m\", \"or\"]": 579,
        "[\" r\", \"o\"]": 580,
        "[\"f\", \"or\"]": 581,
        "[\" b\", \"r\"]": 582,
        "[\"\\n\", \"E\"]": 583,
        "[\" \", \"ear\"]": 584,
        "[\"c\", \"c\"]": 585,
        "[\"\\n\", \"U\"]": 586,
        "[\"\\n\\n\", \"Q\"]": 587,
        "[\"\\n\\nQ\", \"U\"]": 588,
        "[\"\\n\\nQU\", \"EEN\"]": 589,
        "[\"INC\", \"ENTIO:</w>\"]": 590,
        "[\"a\", \"p\"]": 591,
        "[\"d\", \"y</w>\"]": 592,
        "[\" O\", \"F\"]": 593,
        "[\" OF\", \"</w>\"]": 594,
        "[\" c\", \"an</w>\"]": 595,
        "[\"er\", \"s</w>\"]": 596,
        "[\"\\n\\n\", \"T\"]": 597,
        "[\"ing\", \",</w>\"]": 598,
        "[\"U\", \"M\"]": 599,
        "[\" d\", \"i\"]": 600,
        "[\"a\", \"st\"]": 601,
        "[\"A\", \"M\"]": 602,
        "[\" mo\", \"st</w>\"]": 603,
        "[\"an\", \"g\"]": 604,
        "[\"f\", \"ul</w>\"]": 605,
        "[\" l\", \"ord,</w>\"]": 606,
        "[\"i\", \"ch\"]": 607,
        "[\"o\", \"s\"]": 608,
        "[\"ell\", \",</w>\"]": 609,
        "[\"e\", \"g\"]": 610,
        "[\"u\", \"e</w>\"]": 611,
        "[\" t\", \"w\"]": 612,
        "[\"i\", \"z\"]": 613,
        "[\" w\", \"ell</w>\"]": 614,
        "[\"t\", \";</w>\"]": 615,
        "[\" b\", \"rea\"]": 616,
        "[\"n\", \"ot</w>\"]": 617,
        "[\"in\", \"d</w>\"]": 618,
        "[\"c\", \"e,</w>\"]": 619,
        "[\"ain\", \"</w>\"]": 620,
        "[\" m\", \"ea\"]": 621,
        "[\"\\n\", \"R\"]": 622,
        "[\" be\", \"t\"]": 623,
        "[\"EN\", \"R\"]": 624,
        "[\"ENR\", \"Y</w>\"]": 625,
        "[\" o\", \"w\"]": 626,
        "[\" w\", \"r\"]": 627,
        "[\" G\", \"o\"]": 628,
        "[\" g\", \"o</w>\"]": 629,
        "[\" a\", \"w\"]": 630,
        "[\"\\n\", \"th\"]": 631,
        "[\" t\", \"ell</w>\"]": 632,
        "[\"y\", \":</w>\"]": 633,
        "[\"\\nTh\", \"is</w>\"]": 634,
        "[\"\\nS\", \"o</w>\"]": 635,
        "[\" the\", \"m\"]": 636,
        "[\" \", \"out</w>\"]": 637,
        "[\"OR\", \"I\"]": 638,
        "[\"d\", \"i\"]": 639,
        "[\" o\", \"ff\"]": 640,
        "[\" g\", \"rea\"]": 641,
        "[\" V\", \"INCENTIO:</w>\"]": 642,
        "[\"y\", \";</w>\"]": 643,
        "[\"ee\", \"p</w>\"]": 644,
        "[\" n\", \"ew\"]": 645,
        "[\" \", \"K\"]": 646,
        "[\" u\", \"p</w>\"]": 647,
        "[\" 't\", \"is</w>\"]": 648,
        "[\"\\nO\", \"</w>\"]": 649,
        "[\"\\n\\nQUEEN\", \"</w>\"]": 650,
        "[\" d\", \"a\"]": 651,
        "[\"E\", \"S:</w>\"]": 652,
        "[\" \", \"F\"]": 653,
        "[\" T\", \"h\"]": 654,
        "[\"\\nO\", \",</w>\"]": 655,
        "[\" th\", \"ere</w>\"]": 656,
        "[\"OR\", \"K:</w>\"]": 657,
        "[\" m\", \"is\"]": 658,
        "[\"k\", \"s</w>\"]": 659,
        "[\" li\", \"v\"]": 660,
        "[\"\\nH\", \"ow</w>\"]": 661,
        "[\"t\", \"y</w>\"]": 662,
        "[\" n\", \"ever</w>\"]": 663,
        "[\" m\", \"an</w>\"]": 664,
        "[\" to\", \"o</w>\"]": 665,
        "[\" min\", \"e</w>\"]": 666,
        "[\" w\", \"ar\"]": 667,
        "[\" f\", \"o\"]": 668,
        "[\" mad\", \"e</w>\"]": 669,
        "[\"ig\", \"n\"]": 670,
        "[\" n\", \"e\"]": 671,
        "[\"IN\", \"IUS:</w>\"]": 672,
        "[\" s\", \"ee\"]": 673,
        "[\"a\", \"ll\"]": 674,
        "[\"ong\", \"</w>\"]": 675,
        "[\"\\nI\", \"s</w>\"]": 676,
        "[\"\\nTh\", \"ou</w>\"]": 677,
        "[\" com\", \"m\"]": 678,
        "[\" c\", \"oun\"]": 679,
        "[\" th\", \"r\"]": 680,
        "[\"d\", \";</w>\"]": 681,
        "[\"es\", \".</w>\"]": 682,
        "[\"e\", \"en</w>\"]": 683,
        "[\"om\", \"e\"]": 684,
        "[\" c\", \"l\"]": 685,
        "[\"s\", \"!</w>\"]": 686,
        "[\" a\", \"ll\"]": 687,
        "[\"'\", \"st</w>\"]": 688,
        "[\"ough\", \"t</w>\"]": 689,
        "[\"\\n'\", \"T\"]": 690,
        "[\"an\", \":</w>\"]": 691,
        "[\"D\", \"W\"]": 692,
        "[\" h\", \"ear</w>\"]": 693,
        "[\" tim\", \"e</w>\"]": 694,
        "[\" s\", \"c\"]": 695,
        "[\" the\", \"e,</w>\"]": 696,
        "[\" an\", \"y</w>\"]": 697,
        "[\"l\", \"em\"]": 698,
        "[\"at\", \"'s</w>\"]": 699,
        "[\"en\", \"g\"]": 700,
        "[\"\\nY\", \"our</w>\"]": 701,
        "[\"\\n\\nP\", \"ET\"]": 702,
        "[\" ar\", \"t</w>\"]": 703,
        "[\" mu\", \"ch</w>\"]": 704,
        "[\"A\", \"L\"]": 705,
        "[\"\\n\\nL\", \"UC\"]": 706,
        "[\" \", \"D\"]": 707,
        "[\"\\nI\", \"t</w>\"]": 708,
        "[\"el\", \"</w>\"]": 709,
        "[\"\\nW\", \"e</w>\"]": 710,
        "[\"it\", \"y</w>\"]": 711,
        "[\" fri\", \"end\"]": 712,
        "[\"ar\", \"e</w>\"]": 713,
        "[\"EL\", \"L\"]": 714,
        "[\" r\", \"a\"]": 715,
        "[\" him\", \",</w>\"]": 716,
        "[\"ec\", \"ond</w>\"]": 717,
        "[\"e\", \"y</w>\"]": 718,
        "[\" wi\", \"th\"]": 719,
        "[\" do\", \"th</w>\"]": 720,
        "[\"ow\", \"n</w>\"]": 721,
        "[\"\\nI\", \"'ll</w>\"]": 722,
        "[\"o\", \"ld</w>\"]": 723,
        "[\" can\", \"not</w>\"]": 724,
        "[\"\\nWh\", \"y,</w>\"]": 725,
        "[\"O\", \"M\"]": 726,
        "[\"d\", \"w\"]": 727,
        "[\" d\", \"u\"]": 728,
        "[\" a\", \"d\"]": 729,
        "[\"er\", \".</w>\"]": 730,
        "[\" W\", \"h\"]": 731,
        "[\"an\", \"t</w>\"]": 732,
        "[\" s\", \"oul\"]": 733,
        "[\"A\", \"P\"]": 734,
        "[\"\\n\\n\", \"RO\"]": 735,
        "[\"\\n\\nRO\", \"M\"]": 736,
        "[\"\\n\\nROM\", \"E\"]": 737,
        "[\"\\n\\nROME\", \"O:</w>\"]": 738,
        "[\"\\n\\nM\", \"EN\"]": 739,
        "[\"\\n\\nMEN\", \"EN\"]": 740,
        "[\"\\n\\nMENEN\", \"IUS:</w>\"]": 741,
        "[\"s\", \"?</w>\"]": 742,
        "[\" o\", \"f\"]": 743,
        "[\" no\", \"ble</w>\"]": 744,
        "[\" m\", \"y\"]": 745,
        "[\" h\", \"and\"]": 746,
        "[\"it\", \"t\"]": 747,
        "[\"\\nO\", \"r</w>\"]": 748,
        "[\" be\", \"en</w>\"]": 749,
        "[\" g\", \"r\"]": 750,
        "[\"\\n\\n\", \"N\"]": 751,
        "[\"n\", \"ess</w>\"]": 752,
        "[\"i\", \"ce</w>\"]": 753,
        "[\"an\", \"t\"]": 754,
        "[\"in\", \"ce</w>\"]": 755,
        "[\"T\", \"H\"]": 756,
        "[\"ef\", \"ore</w>\"]": 757,
        "[\" wh\", \"ere</w>\"]": 758,
        "[\"u\", \"se</w>\"]": 759,
        "[\"ou\", \"nd</w>\"]": 760,
        "[\"\\n\\n\", \"J\"]": 761,
        "[\"\\n\\nPET\", \"R\"]": 762,
        "[\"\\n\\nPETR\", \"UCH\"]": 763,
        "[\"\\n\\nPETRUCH\", \"IO:</w>\"]": 764,
        "[\"\\n\", \"w\"]": 765,
        "[\" v\", \"ery</w>\"]": 766,
        "[\"a\", \"k\"]": 767,
        "[\"a\", \"s</w>\"]": 768,
        "[\"m\", \"p\"]": 769,
        "[\"'\", \"d,</w>\"]": 770,
        "[\" b\", \"ea\"]": 771,
        "[\" r\", \"es\"]": 772,
        "[\" thin\", \"k</w>\"]": 773,
        "[\"d\", \":</w>\"]": 774,
        "[\"\\nA\", \"n\"]": 775,
        "[\"i\", \"f\"]": 776,
        "[\"\\nB\", \"y</w>\"]": 777,
        "[\" a\", \"pp\"]": 778,
        "[\" n\", \"or</w>\"]": 779,
        "[\"ON\", \"T\"]": 780,
        "[\" spea\", \"k</w>\"]": 781,
        "[\" r\", \"em\"]": 782,
        "[\"\\nA\", \"y,</w>\"]": 783,
        "[\" \", \"el\"]": 784,
        "[\"el\", \"y</w>\"]": 785,
        "[\"a\", \"</w>\"]": 786,
        "[\"th\", \"ing</w>\"]": 787,
        "[\"\\n\\nG\", \"R\"]": 788,
        "[\"d\", \"er</w>\"]": 789,
        "[\" th\", \"is\"]": 790,
        "[\"c\", \"l\"]": 791,
        "[\"ORI\", \"OL\"]": 792,
        "[\"ORIOL\", \"AN\"]": 793,
        "[\"s\", \"t,</w>\"]": 794,
        "[\"\\n\\nS\", \"econd</w>\"]": 795,
        "[\" r\", \"ep\"]": 796,
        "[\"s\", \"w\"]": 797,
        "[\" pr\", \"es\"]": 798,
        "[\"\\n\\nC\", \"ORIOLAN\"]": 799,
        "[\"\\n\\nCORIOLAN\", \"US:</w>\"]": 800,
        "[\" him\", \".</w>\"]": 801,
        "[\"u\", \"st\"]": 802,
        "[\" E\", \"dw\"]": 803,
        "[\"ea\", \"l\"]": 804,
        "[\"an\", \"d,</w>\"]": 805,
        "[\" p\", \"la\"]": 806,
        "[\"en\", \":</w>\"]": 807,
        "[\"ed\", \".</w>\"]": 808,
        "[\" you\", \".</w>\"]": 809,
        "[\" w\", \"ord\"]": 810,
        "[\"ew\", \"</w>\"]": 811,
        "[\"w\", \"</w>\"]": 812,
        "[\" fa\", \"ir</w>\"]": 813,
        "[\" be\", \"g\"]": 814,
        "[\" be\", \"f\"]": 815,
        "[\" be\", \"ing</w>\"]": 816,
        "[\"i\", \"ther</w>\"]": 817,
        "[\" fa\", \"ther\"]": 818,
        "[\" i\", \"t.</w>\"]": 819,
        "[\"th\", \".</w>\"]": 820,
        "[\"\\n\", \"h\"]": 821,
        "[\"ing\", \"s</w>\"]": 822,
        "[\"e\", \"t,</w>\"]": 823,
        "[\" c\", \"row\"]": 824,
        "[\"il\", \"</w>\"]": 825,
        "[\" E\", \"DW\"]": 826,
        "[\"it\", \"iz\"]": 827,
        "[\" M\", \"ar\"]": 828,
        "[\" t\", \"oo\"]": 829,
        "[\"\\nWh\", \"en</w>\"]": 830,
        "[\"\\nWh\", \"ere</w>\"]": 831,
        "[\" j\", \"o\"]": 832,
        "[\"\\n\\n\", \"AN\"]": 833,
        "[\"IN\", \"A:</w>\"]": 834,
        "[\"'\", \"er</w>\"]": 835,
        "[\" bl\", \"oo\"]": 836,
        "[\" con\", \"s\"]": 837,
        "[\" wi\", \"f\"]": 838,
        "[\"D\", \":</w>\"]": 839,
        "[\" I\", \"I\"]": 840,
        "[\" II\", \"I:</w>\"]": 841,
        "[\"\\nTh\", \"an</w>\"]": 842,
        "[\" \", \"N\"]": 843,
        "[\" w\", \"om\"]": 844,
        "[\" k\", \"ing</w>\"]": 845,
        "[\" ow\", \"n</w>\"]": 846,
        "[\" you\", \"r\"]": 847,
        "[\" da\", \"ugh\"]": 848,
        "[\" ha\", \"st</w>\"]": 849,
        "[\"em\", \"p\"]": 850,
        "[\" f\", \"oo\"]": 851,
        "[\"n\", \",</w>\"]": 852,
        "[\"t\", \"?</w>\"]": 853,
        "[\"is\", \"e</w>\"]": 854,
        "[\"w\", \"ic\"]": 855,
        "[\" con\", \"t\"]": 856,
        "[\"ti\", \"on</w>\"]": 857,
        "[\" grea\", \"t</w>\"]": 858,
        "[\" \", \"J\"]": 859,
        "[\" a\", \"m\"]": 860,
        "[\"ar\", \"wic\"]": 861,
        "[\"l\", \"i\"]": 862,
        "[\" wh\", \"o</w>\"]": 863,
        "[\"\\nU\", \"n\"]": 864,
        "[\"in\", \"e</w>\"]": 865,
        "[\"enc\", \"e,</w>\"]": 866,
        "[\"ish\", \"</w>\"]": 867,
        "[\"u\", \"d\"]": 868,
        "[\" st\", \"r\"]": 869,
        "[\"e\", \"-\"]": 870,
        "[\"A\", \"D\"]": 871,
        "[\" Y\", \"ORK:</w>\"]": 872,
        "[\"ing\", \".</w>\"]": 873,
        "[\" m\", \"er\"]": 874,
        "[\"\\n\\n\", \"V\"]": 875,
        "[\" sw\", \"eet</w>\"]": 876,
        "[\"\\n\\n\", \"IS\"]": 877,
        "[\"\\n\\nIS\", \"AB\"]": 878,
        "[\"\\n\\nISAB\", \"ELL\"]": 879,
        "[\"\\n\\nISABELL\", \"A:</w>\"]": 880,
        "[\"il\", \"e</w>\"]": 881,
        "[\"s\", \"p\"]": 882,
        "[\" i\", \"t,</w>\"]": 883,
        "[\"es\", \";</w>\"]": 884,
        "[\"es\", \"s,</w>\"]": 885,
        "[\" bef\", \"ore</w>\"]": 886,
        "[\" f\", \"ear\"]": 887,
        "[\" po\", \"or</w>\"]": 888,
        "[\"ir\", \",</w>\"]": 889,
        "[\"o\", \"st\"]": 890,
        "[\"R\", \"AN\"]": 891,
        "[\"'\", \"t</w>\"]": 892,
        "[\" a\", \"cc\"]": 893,
        "[\" no\", \"t,</w>\"]": 894,
        "[\" r\", \"e\"]": 895,
        "[\" \", \"ent\"]": 896,
        "[\" man\", \"y</w>\"]": 897,
        "[\"ee\", \"d\"]": 898,
        "[\" ar\", \"m\"]": 899,
        "[\"r\", \"e</w>\"]": 900,
        "[\" p\", \"ow\"]": 901,
        "[\" m\", \"e.</w>\"]": 902,
        "[\"A\", \"S\"]": 903,
        "[\" W\", \"arwic\"]": 904,
        "[\"\\n\\nJ\", \"U\"]": 905,
        "[\"\\n\\nJU\", \"LI\"]": 906,
        "[\"\\n\\nJULI\", \"ET:</w>\"]": 907,
        "[\"\\n\\nL\", \"E\"]": 908,
        "[\"\\n\\nLE\", \"ONT\"]": 909,
        "[\"\\n\\nLEONT\", \"ES:</w>\"]": 910,
        "[\"e\", \"ed</w>\"]": 911,
        "[\"y\", \"?</w>\"]": 912,
        "[\" w\", \"ell\"]": 913,
        "[\" o\", \"ld</w>\"]": 914,
        "[\"in\", \"c\"]": 915,
        "[\" R\", \"ich\"]": 916,
        "[\"i\", \"el\"]": 917,
        "[\" h\", \"el\"]": 918,
        "[\"u\", \"t,</w>\"]": 919,
        "[\"\\nAn\", \"d,</w>\"]": 920,
        "[\" com\", \"p\"]": 921,
        "[\"on\", \"e,</w>\"]": 922,
        "[\" h\", \"op\"]": 923,
        "[\" t\", \"ra\"]": 924,
        "[\" wi\", \"ll\"]": 925,
        "[\" t\", \"ong\"]": 926,
        "[\"ter\", \",</w>\"]": 927,
        "[\"t\", \"ing</w>\"]": 928,
        "[\"\\nH\", \"is</w>\"]": 929,
        "[\"AD\", \"Y</w>\"]": 930,
        "[\"\\nWh\", \"o</w>\"]": 931,
        "[\"\\n'T\", \"is</w>\"]": 932,
        "[\" s\", \"or\"]": 933,
        "[\"ag\", \"e</w>\"]": 934,
        "[\"EN\", \"C\"]": 935,
        "[\"ENC\", \"E:</w>\"]": 936,
        "[\"\\n\\nL\", \"ADY</w>\"]": 937,
        "[\" kn\", \"ow\"]": 938,
        "[\" r\", \"ev\"]": 939,
        "[\"em\", \"b\"]": 940,
        "[\"l\", \"ess</w>\"]": 941,
        "[\" t\", \"al\"]": 942,
        "[\"an\", \"ce</w>\"]": 943,
        "[\"t\", \"t\"]": 944,
        "[\"i\", \"ous</w>\"]": 945,
        "[\"\\n\\n\", \"R\"]": 946,
        "[\" s\", \"erv\"]": 947,
        "[\"ti\", \"on\"]": 948,
        "[\" hear\", \"t</w>\"]": 949,
        "[\" ch\", \"il\"]": 950,
        "[\"t\", \"un\"]": 951,
        "[\"k\", \".</w>\"]": 952,
        "[\"i\", \"e\"]": 953,
        "[\" p\", \"e\"]": 954,
        "[\"ir\", \"e</w>\"]": 955,
        "[\" ev\", \"er</w>\"]": 956,
        "[\" t\", \"ri\"]": 957,
        "[\"\\n\\nS\", \"IC\"]": 958,
        "[\"\\n\\nSIC\", \"INIUS:</w>\"]": 959,
        "[\"en\", \"t,</w>\"]": 960,
        "[\"ear\", \"s</w>\"]": 961,
        "[\" g\", \"ri\"]": 962,
        "[\" ma\", \"st\"]": 963,
        "[\"v\", \"es</w>\"]": 964,
        "[\" c\", \"our\"]": 965,
        "[\" l\", \"itt\"]": 966,
        "[\" lea\", \"ve</w>\"]": 967,
        "[\" fa\", \"ther</w>\"]": 968,
        "[\" again\", \"st</w>\"]": 969,
        "[\"d\", \"r\"]": 970,
        "[\" gent\", \"lem\"]": 971,
        "[\" bo\", \"th</w>\"]": 972,
        "[\"id\", \"e</w>\"]": 973,
        "[\" fo\", \"ll\"]": 974,
        "[\"i\", \"p\"]": 975,
        "[\" th\", \"ose</w>\"]": 976,
        "[\" g\", \"oo\"]": 977,
        "[\"y\", \"'s</w>\"]": 978,
        "[\"\\nTh\", \"en</w>\"]": 979,
        "[\" you\", \"ng\"]": 980,
        "[\"E\", \"Y:</w>\"]": 981,
        "[\"\\n\\n\", \"W\"]": 982,
        "[\"ar\", \"r\"]": 983,
        "[\"\\nC\", \"ome,</w>\"]": 984,
        "[\"o\", \"st</w>\"]": 985,
        "[\"\\n\\n\", \"AU\"]": 986,
        "[\"-\", \"m\"]": 987,
        "[\" n\", \"igh\"]": 988,
        "[\" n\", \"ow,</w>\"]": 989,
        "[\" h\", \"ol\"]": 990,
        "[\"ec\", \"t</w>\"]": 991,
        "[\" loo\", \"k</w>\"]": 992,
        "[\" p\", \"ea\"]": 993,
        "[\" l\", \"et\"]": 994,
        "[\"\\n\\nLUC\", \"IO:</w>\"]": 995,
        "[\" g\", \"u\"]": 996,
        "[\"\\n\", \"b\"]": 997,
        "[\"\\n\", \"s\"]": 998,
        "[\" b\", \"ear</w>\"]": 999,
        "[\"\\nN\", \"o,</w>\"]": 1000,
        "[\" EDW\", \"ARD</w>\"]": 1001,
        "[\" I\", \"V\"]": 1002,
        "[\" IV\", \":</w>\"]": 1003,
        "[\" m\", \"en</w>\"]": 1004,
        "[\" o\", \"ther</w>\"]": 1005,
        "[\" ch\", \"ar\"]": 1006,
        "[\" h\", \"igh\"]": 1007,
        "[\" hon\", \"our\"]": 1008,
        "[\" s\", \"on\"]": 1009,
        "[\" th\", \"an\"]": 1010,
        "[\"h\", \",</w>\"]": 1011,
        "[\"ARD\", \":</w>\"]": 1012,
        "[\" com\", \"es</w>\"]": 1013,
        "[\"\\nN\", \"ot</w>\"]": 1014,
        "[\" c\", \"all</w>\"]": 1015,
        "[\" t\", \"r\"]": 1016,
        "[\" a\", \"f\"]": 1017,
        "[\"ur\", \"n\"]": 1018,
        "[\"\\n\\nC\", \"L\"]": 1019,
        "[\"\\nL\", \"et</w>\"]": 1020,
        "[\"or\", \"n</w>\"]": 1021,
        "[\" th\", \"us</w>\"]": 1022,
        "[\" su\", \"b\"]": 1023
    }
}