{
    "token_map": {
        "<BOT>": 0,
        "<EOT>": 1,
        "</w>": 2,
        "白": 3,
        "⁕": 4,
        "는": 5,
        "จ": 6,
        "意": 7,
        "ロ": 8,
        "強": 9,
        "問": 10,
        "Œ": 11,
        "Թ": 12,
        "𝘞": 13,
        "史": 14,
        "ஒ": 15,
        "̽": 16,
        "ĵ": 17,
        "፹": 18,
        "ᴵ": 19,
        "家": 20,
        "а": 21,
        "須": 22,
        "男": 23,
        "쥬": 24,
        "ت": 25,
        "্": 26,
        "剧": 27,
        "ے": 28,
        "ȏ": 29,
        "＂": 30,
        "續": 31,
        "权": 32,
        "을": 33,
        "迭": 34,
        "每": 35,
        "\u001a": 36,
        "ব": 37,
        "ö": 38,
        "ν": 39,
        "ｏ": 40,
        "\u0012": 41,
        "ḥ": 42,
        "算": 43,
        "₂": 44,
        "⬛": 45,
        "達": 46,
        "樣": 47,
        "υ": 48,
        "헤": 49,
        "མ": 50,
        "ိ": 51,
        "マ": 52,
        "が": 53,
        "聖": 54,
        "暴": 55,
        "断": 56,
        "ᴢ": 57,
        "ĺ": 58,
        "ʏ": 59,
        "》": 60,
        "ᵈ": 61,
        "与": 62,
        "⏂": 63,
        "ر": 64,
        "│": 65,
        "ற": 66,
        "东": 67,
        "Э": 68,
        "I": 69,
        "­": 70,
        "ⓔ": 71,
        "ት": 72,
        "،": 73,
        "保": 74,
        "看": 75,
        "늘": 76,
        "ρ": 77,
        "ቡ": 78,
        "識": 79,
        "伦": 80,
        "ͅ": 81,
        "β": 82,
        "φ": 83,
        "ű": 84,
        "《": 85,
        "̀": 86,
        "王": 87,
        "Ꮢ": 88,
        "過": 89,
        "是": 90,
        "↓": 91,
        "Ớ": 92,
        "イ": 93,
        "ྲ": 94,
        "Γ": 95,
        "待": 96,
        "ƚ": 97,
        "ን": 98,
        "轴": 99,
        "D": 100,
        "남": 101,
        "ｅ": 102,
        "⌠": 103,
        "먹": 104,
        "名": 105,
        "가": 106,
        "࿋": 107,
        "先": 108,
        "😪": 109,
        "簡": 110,
        "😔": 111,
        "ழ": 112,
        "و": 113,
        "￣": 114,
        "‑": 115,
        "潮": 116,
        "하": 117,
        "‽": 118,
        "ᜍ": 119,
        "刑": 120,
        "Ｔ": 121,
        "த": 122,
        "吳": 123,
        "近": 124,
        "求": 125,
        "止": 126,
        "已": 127,
        "छ": 128,
        "離": 129,
        "☆": 130,
        "者": 131,
        "员": 132,
        "م": 133,
        "⧳": 134,
        "᷁": 135,
        "أ": 136,
        "布": 137,
        "ᮩ": 138,
        "┘": 139,
        "踪": 140,
        "№": 141,
        "ダ": 142,
        "방": 143,
        "̬": 144,
        "有": 145,
        "후": 146,
        "未": 147,
        "義": 148,
        "Ś": 149,
        "主": 150,
        "𝘧": 151,
        "☺": 152,
        "*": 153,
        "ी": 154,
        "☐": 155,
        "龍": 156,
        "Ɔ": 157,
        "放": 158,
        "群": 159,
        "Ѩ": 160,
        "▿": 161,
        "ও": 162,
        "₹": 163,
        "元": 164,
        "✖": 165,
        "ł": 166,
        "∉": 167,
        "犬": 168,
        "̖": 169,
        "顏": 170,
        "ԋ": 171,
        "": 172,
        "ґ": 173,
        "ྒ": 174,
        "ủ": 175,
        "̗": 176,
        "😌": 177,
        "―": 178,
        "ጥ": 179,
        "ئ": 180,
        "Т": 181,
        "c": 182,
        "沒": 183,
        "K": 184,
        "대": 185,
        "¬": 186,
        "🇸": 187,
        "｡": 188,
        "チ": 189,
        "Ꮑ": 190,
        "ப": 191,
        "임": 192,
        "汤": 193,
        "+": 194,
        "ঁ": 195,
        "の": 196,
        "目": 197,
        "吞": 198,
        "˚": 199,
        "Ī": 200,
        "奇": 201,
        "‹": 202,
        "弾": 203,
        "ॠ": 204,
        "장": 205,
        "J": 206,
        "6": 207,
        "ਤ": 208,
        "Έ": 209,
        "席": 210,
        "확": 211,
        "ּ": 212,
        "ா": 213,
        "ï": 214,
        "≈": 215,
        "👑": 216,
        "Ҩ": 217,
        "免": 218,
        "起": 219,
        "V": 220,
        "拳": 221,
        "µ": 222,
        "ৃ": 223,
        "辣": 224,
        "⅃": 225,
        "や": 226,
        "ש": 227,
        "只": 228,
        "̥": 229,
        "ه": 230,
        "弄": 231,
        "ᴉ": 232,
        "化": 233,
        "興": 234,
        "А": 235,
        "Ꭵ": 236,
        "ん": 237,
        "あ": 238,
        "⬥": 239,
        "ौ": 240,
        "ｃ": 241,
        "ř": 242,
        "£": 243,
        "ᗡ": 244,
        "О": 245,
        "간": 246,
        "B": 247,
        "ë": 248,
        "": 249,
        "ヴ": 250,
        "活": 251,
        "⅛": 252,
        "ḫ": 253,
        "о": 254,
        "🏂": 255,
        "新": 256,
        "具": 257,
        "உ": 258,
        "ღ": 259,
        "ি": 260,
        "╮": 261,
        "✋": 262,
        "ж": 263,
        "ཅ": 264,
        "ʇ": 265,
        "오": 266,
        "臣": 267,
        "ｈ": 268,
        "ḋ": 269,
        "͇": 270,
        "地": 271,
        "這": 272,
        "짜": 273,
        "᷿": 274,
        "Ψ": 275,
        "아": 276,
        "있": 277,
        "ね": 278,
        "ゎ": 279,
        "ए": 280,
        "；": 281,
        "̰": 282,
        "胰": 283,
        "‏": 284,
        "该": 285,
        "ஏ": 286,
        "気": 287,
        "ੈ": 288,
        "양": 289,
        "멈": 290,
        "😋": 291,
        "༼": 292,
        "凰": 293,
        "ɹ": 294,
        "备": 295,
        "ʋ": 296,
        "喂": 297,
        "𝘐": 298,
        "ক": 299,
        "ŝ": 300,
        ",": 301,
        "ᴄ": 302,
        "ῳ": 303,
        "关": 304,
        "苦": 305,
        "̐": 306,
        "﻿": 307,
        "须": 308,
        "ḇ": 309,
        "👠": 310,
        "肆": 311,
        "‖": 312,
        "℃": 313,
        "ᴘ": 314,
        "부": 315,
        "😛": 316,
        "{": 317,
        "上": 318,
        "ብ": 319,
        "╩": 320,
        "Â": 321,
        ";": 322,
        "ā": 323,
        "閣": 324,
        "❖": 325,
        "何": 326,
        "烤": 327,
        "𝑎": 328,
        "😆": 329,
        "痛": 330,
        "懒": 331,
        "Ч": 332,
        "젠": 333,
        "͝": 334,
        "͎": 335,
        "녕": 336,
        "δ": 337,
        "☂": 338,
        "就": 339,
        "ừ": 340,
        "叔": 341,
        "ַ": 342,
        "감": 343,
        "ড়": 344,
        "ফ": 345,
        "♨": 346,
        "Ἰ": 347,
        "ʻ": 348,
        "▦": 349,
        "ጭ": 350,
        "@": 351,
        "な": 352,
        "ِ": 353,
        "Ƭ": 354,
        "Ɲ": 355,
        "ố": 356,
        "ഢ": 357,
        "4": 358,
        "Ꭺ": 359,
        "Ր": 360,
        "†": 361,
        "프": 362,
        "§": 363,
        "Σ": 364,
        "见": 365,
        "方": 366,
        "（": 367,
        "Ï": 368,
        "˄": 369,
        "ソ": 370,
        "ţ": 371,
        "相": 372,
        "Ÿ": 373,
        "ま": 374,
        "时": 375,
        "̓": 376,
        "问": 377,
        "R": 378,
        "べ": 379,
        "ʓ": 380,
        "献": 381,
        "ͩ": 382,
        "◉": 383,
        "͙": 384,
        "ú": 385,
        "¿": 386,
        "்": 387,
        "ᚢ": 388,
        "ボ": 389,
        "〓": 390,
        "生": 391,
        "𝑜": 392,
        "ŋ": 393,
        "ⓘ": 394,
        "Ǫ": 395,
        "乌": 396,
        "比": 397,
        "谢": 398,
        "能": 399,
        "如": 400,
        "嘉": 401,
        "着": 402,
        "😜": 403,
        "総": 404,
        "这": 405,
        "ṛ": 406,
        "供": 407,
        "判": 408,
        "‎": 409,
        "西": 410,
        "类": 411,
        "ˮ": 412,
        "́": 413,
        "ង": 414,
        "花": 415,
        "환": 416,
        "再": 417,
        "은": 418,
        "ᶰ": 419,
        "走": 420,
        "ど": 421,
        "T": 422,
        "ভ": 423,
        "ィ": 424,
        "ု": 425,
        "驚": 426,
        "ଌ": 427,
        "愿": 428,
        "¨": 429,
        "͖": 430,
        "料": 431,
        "ம": 432,
        "̷": 433,
        "ᵃ": 434,
        "라": 435,
        "͆": 436,
        "✏": 437,
        "사": 438,
        "野": 439,
        "🚅": 440,
        "艾": 441,
        "情": 442,
        "ᵏ": 443,
        "许": 444,
        "最": 445,
        "ಕ": 446,
        "￼": 447,
        "ً": 448,
        "♡": 449,
        "❍": 450,
        "░": 451,
        "ầ": 452,
        "○": 453,
        "ル": 454,
        "■": 455,
        "종": 456,
        "ג": 457,
        "被": 458,
        "작": 459,
        "ਠ": 460,
        "¼": 461,
        "忘": 462,
        "美": 463,
        "Й": 464,
        "撃": 465,
        "繼": 466,
        "ட": 467,
        "Ｆ": 468,
        "Ԭ": 469,
        "´": 470,
        "አ": 471,
        "😊": 472,
        "ነ": 473,
        "វ": 474,
        "상": 475,
        "在": 476,
        "ዳ": 477,
        "ɪ": 478,
        "ਬ": 479,
        "佐": 480,
        "ء": 481,
        "⊥": 482,
        "Ο": 483,
        "ና": 484,
        "μ": 485,
        "Ꮎ": 486,
        "।": 487,
        "ǣ": 488,
        "ḅ": 489,
        "뉴": 490,
        "ੰ": 491,
        "得": 492,
        "😮": 493,
        "İ": 494,
        "回": 495,
        "🙄": 496,
        "⠕": 497,
        "ſ": 498,
        "ộ": 499,
        "タ": 500,
        "ባ": 501,
        "﹗": 502,
        "ю": 503,
        "³": 504,
        "Ú": 505,
        "ḑ": 506,
        "པ": 507,
        ":": 508,
        "ÿ": 509,
        "😂": 510,
        "第": 511,
        "ዚ": 512,
        "∇": 513,
        "ш": 514,
        "에": 515,
        "兽": 516,
        "ு": 517,
        "일": 518,
        "ƴ": 519,
        "↵": 520,
        "Ｅ": 521,
        "ॅ": 522,
        "ą": 523,
        "译": 524,
        "ᶦ": 525,
        "◊": 526,
        "👎": 527,
        "🖕": 528,
        "魂": 529,
        "ي": 530,
        "e": 531,
        "底": 532,
        "Θ": 533,
        "∏": 534,
        "Β": 535,
        "♂": 536,
        "̀": 537,
        "尊": 538,
        "苹": 539,
        "খ": 540,
        "賈": 541,
        "住": 542,
        "己": 543,
        "🔌": 544,
        "嗎": 545,
        "◙": 546,
        "ﾚ": 547,
        "—": 548,
        "ಠ": 549,
        "历": 550,
        "उ": 551,
        "两": 552,
        "®": 553,
        "ᚠ": 554,
        "🏼": 555,
        "ן": 556,
        "۷": 557,
        "腺": 558,
        "ԉ": 559,
        "ʂ": 560,
        "ś": 561,
        "時": 562,
        "👿": 563,
        "⁄": 564,
        "饭": 565,
        "ぬ": 566,
        "ê": 567,
        "Ц": 568,
        "Ξ": 569,
        "ý": 570,
        "𝘶": 571,
        "ะ": 572,
        "。": 573,
        "😅": 574,
        "Ѻ": 575,
        "👏": 576,
        "❑": 577,
        "ず": 578,
        "護": 579,
        "″": 580,
        "ŕ": 581,
        "爆": 582,
        "💟": 583,
        "स": 584,
        "ǵ": 585,
        "ٹ": 586,
        "け": 587,
        "全": 588,
        "ễ": 589,
        "(": 590,
        "č": 591,
        "ਕ": 592,
        "為": 593,
        "Ö": 594,
        "ண": 595,
        "要": 596,
        "&": 597,
        "搭": 598,
        "猿": 599,
        "✡": 600,
        "ī": 601,
        "𝐭": 602,
        "Ǝ": 603,
        "ͥ": 604,
        "多": 605,
        "∙": 606,
        "̃": 607,
        "歌": 608,
        "ִ": 609,
        "ಗ": 610,
        "不": 611,
        "北": 612,
        "͑": 613,
        "各": 614,
        "啊": 615,
        "͋": 616,
        "ʾ": 617,
        "吃": 618,
        "☻": 619,
        "出": 620,
        "大": 621,
        "‘": 622,
        "と": 623,
        "✈": 624,
        "ㅂ": 625,
        "౦": 626,
        "š": 627,
        "̡": 628,
        "Ô": 629,
        "်": 630,
        "ԙ": 631,
        "o": 632,
        "ਾ": 633,
        "그": 634,
        "条": 635,
        "려": 636,
        "⪯": 637,
        "ᕙ": 638,
        "間": 639,
        "과": 640,
        "ֶ": 641,
        "门": 642,
        "∴": 643,
        "ノ": 644,
        "嗨": 645,
        "γ": 646,
        "ビ": 647,
        "挨": 648,
        "ț": 649,
        "N": 650,
        "Ó": 651,
        "▶": 652,
        "言": 653,
        "‬": 654,
        "ᴜ": 655,
        "Ｉ": 656,
        "書": 657,
        "‡": 658,
        "讀": 659,
        "東": 660,
        "ı": 661,
        "õ": 662,
        "ˇ": 663,
        "火": 664,
        "आ": 665,
        "Г": 666,
        "后": 667,
        "ª": 668,
        "😖": 669,
        "ע": 670,
        "♋": 671,
        "관": 672,
        "ט": 673,
        "ņ": 674,
        "怪": 675,
        "使": 676,
        "̓": 677,
        "k": 678,
        "ろ": 679,
        "⠠": 680,
        "착": 681,
        "ਆ": 682,
        "ြ": 683,
        "ط": 684,
        "忠": 685,
        "إ": 686,
        "с": 687,
        "貴": 688,
        "士": 689,
        "則": 690,
        "ী": 691,
        "ቼ": 692,
        "অ": 693,
        "ԁ": 694,
        "Í": 695,
        "ல": 696,
        "𝘪": 697,
        "☥": 698,
        "▌": 699,
        "✪": 700,
        "酸": 701,
        "♪": 702,
        "子": 703,
        "회": 704,
        "ひ": 705,
        "⦮": 706,
        "弟": 707,
        "匕": 708,
        "尸": 709,
        "╫": 710,
        "準": 711,
        "‚": 712,
        "і": 713,
        "空": 714,
        "η": 715,
        "～": 716,
        "ပ": 717,
        "𝐜": 718,
        "阿": 719,
        "邪": 720,
        "r": 721,
        "中": 722,
        "还": 723,
        "攻": 724,
        "萨": 725,
        "ナ": 726,
        "좋": 727,
        "ו": 728,
        "た": 729,
        "̌": 730,
        "顿": 731,
        "杀": 732,
        "幕": 733,
        "᷃": 734,
        "ᚱ": 735,
        "ｇ": 736,
        "𝐢": 737,
        "せ": 738,
        "游": 739,
        "ာ": 740,
        "3": 741,
        "饿": 742,
        "꒪": 743,
        "ʰ": 744,
        "笑": 745,
        "ă": 746,
        "ச": 747,
        "ᵛ": 748,
        "ៅ": 749,
        "、": 750,
        "★": 751,
        "স": 752,
        "트": 753,
        "ְ": 754,
        "정": 755,
        "崩": 756,
        "𝘭": 757,
        "Ü": 758,
        "Ж": 759,
        "以": 760,
        "≦": 761,
        "း": 762,
        "豚": 763,
        "然": 764,
        "誰": 765,
        "哲": 766,
        "̾": 767,
        "녁": 768,
        "ে": 769,
        "怖": 770,
        "Ꮇ": 771,
        "♏": 772,
        "χ": 773,
        "⌧": 774,
        "ㅅ": 775,
        "ç": 776,
        "ה": 777,
        "输": 778,
        "妙": 779,
        "ɸ": 780,
        "ι": 781,
        "そ": 782,
        "\n": 783,
        "᷈": 784,
        "💥": 785,
        "ያ": 786,
        "で": 787,
        "Б": 788,
        "𝘑": 789,
        "🏆": 790,
        "מ": 791,
        "话": 792,
        "超": 793,
        "瑞": 794,
        "͜": 795,
        "⊙": 796,
        "ੋ": 797,
        "睛": 798,
        "Ď": 799,
        "纠": 800,
        "다": 801,
        "ད": 802,
        "区": 803,
        "「": 804,
        "Ý": 805,
        "記": 806,
        "͗": 807,
        "≠": 808,
        "☴": 809,
        "မ": 810,
        "ᴀ": 811,
        "🌺": 812,
        "ォ": 813,
        "L": 814,
        "👌": 815,
        "ͨ": 816,
        "鸭": 817,
        "Ռ": 818,
        "小": 819,
        "ꜰ": 820,
        "j": 821,
        "합": 822,
        "ク": 823,
        "ぽ": 824,
        "0": 825,
        "되": 826,
        "기": 827,
        "土": 828,
        "료": 829,
        "ᱞ": 830,
        "т": 831,
        "생": 832,
        "≫": 833,
        "づ": 834,
        "务": 835,
        "द": 836,
        "😍": 837,
        "Յ": 838,
        "♩": 839,
        "̋": 840,
        "ྱ": 841,
        "주": 842,
        "়": 843,
        "̳": 844,
        "修": 845,
        "Ѯ": 846,
        "我": 847,
        "-": 848,
        "Ꮃ": 849,
        "₡": 850,
        "，": 851,
        "θ": 852,
        "购": 853,
        "Ι": 854,
        "서": 855,
        "☑": 856,
        "句": 857,
        "图": 858,
        "现": 859,
        "Ｄ": 860,
        "Ꮆ": 861,
        "“": 862,
        "Ｃ": 863,
        "✂": 864,
        "跟": 865,
        "豬": 866,
        "ು": 867,
        "拶": 868,
        "成": 869,
        "ר": 870,
        "Π": 871,
        "⠅": 872,
        "ᴋ": 873,
        "五": 874,
        "京": 875,
        "ا": 876,
        "ƙ": 877,
        "×": 878,
        "ك": 879,
        "異": 880,
        "̴": 881,
        "わ": 882,
        "港": 883,
        "ឡ": 884,
        "❢": 885,
        "ज": 886,
        "ದ": 887,
        "💰": 888,
        "ˆ": 889,
        "آ": 890,
        "像": 891,
        "슬": 892,
        "Ø": 893,
        "치": 894,
        "▽": 895,
        "க": 896,
        "ᓜ": 897,
        "᷎": 898,
        "岁": 899,
        "馆": 900,
        "ក": 901,
        "ढ": 902,
        "ョ": 903,
        "ŭ": 904,
        "园": 905,
        "ျ": 906,
        "ᚸ": 907,
        "猴": 908,
        "手": 909,
        "恶": 910,
        "С": 911,
        "”": 912,
        "̝": 913,
        "㎚": 914,
        "እ": 915,
        "͛": 916,
        "ர": 917,
        "Ò": 918,
        "÷": 919,
        "◻": 920,
        "理": 921,
        "限": 922,
        "ᴠ": 923,
        "ᕼ": 924,
        "⑂": 925,
        "Æ": 926,
        "ě": 927,
        "û": 928,
        "̦": 929,
        "Λ": 930,
        "與": 931,
        "ɒ": 932,
        "ọ": 933,
        "︎": 934,
        "ظ": 935,
        "ṭ": 936,
        "᷅": 937,
        "ň": 938,
        "ᓰ": 939,
        "文": 940,
        "d": 941,
        "╰": 942,
        "ļ": 943,
        "হ": 944,
        "": 945,
        "၌": 946,
        "め": 947,
        "裡": 948,
        "♒": 949,
        "ί": 950,
        "W": 951,
        "시": 952,
        "发": 953,
        "우": 954,
        "㎡": 955,
        ".": 956,
        "么": 957,
        "으": 958,
        "훈": 959,
        "˝": 960,
        "ᛢ": 961,
        "̢": 962,
        "勉": 963,
        "←": 964,
        "ህ": 965,
        "안": 966,
        "ȳ": 967,
        "ተ": 968,
        "ｄ": 969,
        "事": 970,
        "媽": 971,
        "浪": 972,
        "角": 973,
        "迎": 974,
        "場": 975,
        "房": 976,
        "਼": 977,
        "⨁": 978,
        "ס": 979,
        "普": 980,
        "💧": 981,
        "ˢ": 982,
        "⍓": 983,
        "ཞ": 984,
        "া": 985,
        "兰": 986,
        "诉": 987,
        "ό": 988,
        "だ": 989,
        "芬": 990,
        "प": 991,
        "ခ": 992,
        "立": 993,
        "ɑ": 994,
        "Ƨ": 995,
        "г": 996,
        "ছ": 997,
        "愛": 998,
        "ツ": 999,
        "ந": 1000,
        "警": 1001,
        "ლ": 1002,
        "족": 1003,
        "n": 1004,
        "一": 1005,
        "头": 1006,
        "に": 1007,
        "✆": 1008,
        "つ": 1009,
        "๒": 1010,
        "요": 1011,
        "見": 1012,
        "’": 1013,
        "え": 1014,
        "ଶ": 1015,
        "π": 1016,
        "ⱷ": 1017,
        "⠎": 1018,
        "既": 1019,
        "機": 1020,
        "ল": 1021,
        "😕": 1022,
        "丽": 1023,
        "갔": 1024,
        "定": 1025,
        "̻": 1026,
        "권": 1027,
        "A": 1028,
        "ｙ": 1029,
        "ু": 1030,
        "្": 1031,
        "可": 1032,
        "𝑠": 1033,
        "什": 1034,
        "": 1035,
        "⅔": 1036,
        "⧫": 1037,
        "╕": 1038,
        "ض": 1039,
        "않": 1040,
        "張": 1041,
        "ô": 1042,
        "வ": 1043,
        "Л": 1044,
        "פ": 1045,
        "♦": 1046,
        "─": 1047,
        "益": 1048,
        "𝐡": 1049,
        "＝": 1050,
        "┌": 1051,
        "͈": 1052,
        "禁": 1053,
        "ख": 1054,
        "₱": 1055,
        "ಸ": 1056,
        "案": 1057,
        "重": 1058,
        "几": 1059,
        "ŷ": 1060,
        "∫": 1061,
        "乐": 1062,
        "愚": 1063,
        "录": 1064,
        "源": 1065,
        "ਣ": 1066,
        "英": 1067,
        "♀": 1068,
        "福": 1069,
        "⸺": 1070,
        "♤": 1071,
        "う": 1072,
        "🎵": 1073,
        "H": 1074,
        "ོ": 1075,
        "辞": 1076,
        "印": 1077,
        "倒": 1078,
        "利": 1079,
        "完": 1080,
        "▐": 1081,
        "ф": 1082,
        "Ｌ": 1083,
        "콤": 1084,
        "ຖ": 1085,
        "等": 1086,
        "足": 1087,
        "𝑝": 1088,
        "妈": 1089,
        "선": 1090,
        "চ": 1091,
        "ㅣ": 1092,
        "": 1093,
        "ž": 1094,
        "자": 1095,
        "竿": 1096,
        "ς": 1097,
        "戦": 1098,
        "サ": 1099,
        "ᨓ": 1100,
        "̪": 1101,
        "만": 1102,
        "ذ": 1103,
        "辺": 1104,
        "哥": 1105,
        "累": 1106,
        "श": 1107,
        "信": 1108,
        "ғ": 1109,
        "记": 1110,
        "果": 1111,
        "8": 1112,
        "宿": 1113,
        "▬": 1114,
        "까": 1115,
        "ዂ": 1116,
        "整": 1117,
        "哈": 1118,
        "辖": 1119,
        "変": 1120,
        "ণ": 1121,
        "ی": 1122,
        "입": 1123,
        "◘": 1124,
        "決": 1125,
        "थ": 1126,
        "͘": 1127,
        "ƃ": 1128,
        "х": 1129,
        "ｗ": 1130,
        "₪": 1131,
        "ዉ": 1132,
        "人": 1133,
        "Ф": 1134,
        "仍": 1135,
        "𝘸": 1136,
        "ቅ": 1137,
        "フ": 1138,
        "ˈ": 1139,
        "ส": 1140,
        "₴": 1141,
        "ㅿ": 1142,
        "Е": 1143,
        "怎": 1144,
        "τ": 1145,
        "Ε": 1146,
        "ᴾ": 1147,
        "ሺ": 1148,
        "g": 1149,
        "н": 1150,
        "ῇ": 1151,
        "Ļ": 1152,
        "র": 1153,
        "敢": 1154,
        "落": 1155,
        "ধ": 1156,
        "ਰ": 1157,
        "℮": 1158,
        "랑": 1159,
        "도": 1160,
        "마": 1161,
        "😈": 1162,
        "来": 1163,
        "經": 1164,
        "̉": 1165,
        "⠇": 1166,
        "w": 1167,
        "К": 1168,
        "ē": 1169,
        "由": 1170,
        "ϣ": 1171,
        "鳳": 1172,
        "槽": 1173,
        "ɴ": 1174,
        "수": 1175,
        "ⓦ": 1176,
        "위": 1177,
        "ч": 1178,
        "⎒": 1179,
        "ى": 1180,
        "ி": 1181,
        "∂": 1182,
        "ラ": 1183,
        "戰": 1184,
        "д": 1185,
        "年": 1186,
        "ة": 1187,
        "ぐ": 1188,
        "🇺": 1189,
        "ᴏ": 1190,
        "景": 1191,
        "Ç": 1192,
        "̧": 1193,
        "ि": 1194,
        "ʟ": 1195,
        "̲": 1196,
        "懂": 1197,
        "보": 1198,
        "ä": 1199,
        "〜": 1200,
        "፮": 1201,
        "球": 1202,
        "ｌ": 1203,
        "Į": 1204,
        "説": 1205,
        "판": 1206,
        "ẹ": 1207,
        "も": 1208,
        "−": 1209,
        "ै": 1210,
        "ﾓ": 1211,
        "ɼ": 1212,
        "ூ": 1213,
        "●": 1214,
        "帮": 1215,
        "ブ": 1216,
        "∲": 1217,
        "🤔": 1218,
        "虎": 1219,
        "😩": 1220,
        "𝘳": 1221,
        "醒": 1222,
        "🏿": 1223,
        "ڈ": 1224,
        "ရ": 1225,
        "ᴇ": 1226,
        "۴": 1227,
        "̍": 1228,
        "Ə": 1229,
        "河": 1230,
        "按": 1231,
        "„": 1232,
        "တ": 1233,
        "￦": 1234,
        "̺": 1235,
        "ɾ": 1236,
        "🙁": 1237,
        "．": 1238,
        "▓": 1239,
        "د": 1240,
        "짓": 1241,
        "ွ": 1242,
        "Ṽ": 1243,
        "复": 1244,
        "거": 1245,
        "鸡": 1246,
        "ȩ": 1247,
        "ή": 1248,
        "̟": 1249,
        "<": 1250,
        "‿": 1251,
        "ਨ": 1252,
        "Y": 1253,
        "☁": 1254,
        "治": 1255,
        "ｎ": 1256,
        "̩": 1257,
        "ｒ": 1258,
        "ᴿ": 1259,
        "ఠ": 1260,
        "ѕ": 1261,
        "🏻": 1262,
        "ά": 1263,
        "尺": 1264,
        "ậ": 1265,
        "術": 1266,
        "î": 1267,
        "국": 1268,
        "彼": 1269,
        "ᴊ": 1270,
        "̅": 1271,
        "Φ": 1272,
        "香": 1273,
        "غ": 1274,
        "į": 1275,
        "孩": 1276,
        "統": 1277,
        "段": 1278,
        "財": 1279,
        "͕": 1280,
        "̕": 1281,
        "ق": 1282,
        "ứ": 1283,
        "モ": 1284,
        "ʎ": 1285,
        "肉": 1286,
        "_": 1287,
        "ב": 1288,
        "宫": 1289,
        "儿": 1290,
        "फ": 1291,
        "⌣": 1292,
        "▄": 1293,
        "표": 1294,
        "ਹ": 1295,
        "찮": 1296,
        "◆": 1297,
        "≥": 1298,
        "给": 1299,
        "♣": 1300,
        "い": 1301,
        "前": 1302,
        "Ν": 1303,
        "ᵍ": 1304,
        "ょ": 1305,
        "Đ": 1306,
        "ワ": 1307,
        "𝘣": 1308,
        "囚": 1309,
        "展": 1310,
        "😒": 1311,
        "최": 1312,
        "ㅋ": 1313,
        "̸": 1314,
        "₩": 1315,
        "爷": 1316,
        "也": 1317,
        "۲": 1318,
        "谷": 1319,
        "\u000e": 1320,
        "람": 1321,
        "ु": 1322,
        "┴": 1323,
        "風": 1324,
        "̿": 1325,
        "死": 1326,
        "X": 1327,
        "光": 1328,
        "⠞": 1329,
        "በ": 1330,
        "¾": 1331,
        "Х": 1332,
        "भ": 1333,
        "'": 1334,
        "씨": 1335,
        "ṏ": 1336,
        "苏": 1337,
        "æ": 1338,
        "癌": 1339,
        "带": 1340,
        "t": 1341,
        "ᴍ": 1342,
        "很": 1343,
        "裁": 1344,
        "♓": 1345,
        "绝": 1346,
        "ぺ": 1347,
        "把": 1348,
        "ͫ": 1349,
        "날": 1350,
        "α": 1351,
        "♠": 1352,
        "အ": 1353,
        "ͯ": 1354,
        "ট": 1355,
        "ƨ": 1356,
        "ங": 1357,
        "테": 1358,
        "本": 1359,
        "ǝ": 1360,
        "承": 1361,
        "讓": 1362,
        "み": 1363,
        "/": 1364,
        "ʍ": 1365,
        "始": 1366,
        "۸": 1367,
        "Ю": 1368,
        "ত": 1369,
        "需": 1370,
        "북": 1371,
        "ˡ": 1372,
        "M": 1373,
        "感": 1374,
        "餐": 1375,
        "Ē": 1376,
        "ஞ": 1377,
        "月": 1378,
        "睡": 1379,
        "য": 1380,
        "₢": 1381,
        "🙃": 1382,
        "성": 1383,
        "б": 1384,
        "们": 1385,
        "◇": 1386,
        "ș": 1387,
        "ỷ": 1388,
        "ָ": 1389,
        "部": 1390,
        "⸮": 1391,
        "ਪ": 1392,
        "饺": 1393,
        "开": 1394,
        "": 1395,
        "请": 1396,
        "Ꮙ": 1397,
        "`": 1398,
        "应": 1399,
        "將": 1400,
        "り": 1401,
        "命": 1402,
        "ب": 1403,
        "尻": 1404,
        "ံ": 1405,
        "ج": 1406,
        "ể": 1407,
        "?": 1408,
        "М": 1409,
        "a": 1410,
        "ஷ": 1411,
        "症": 1412,
        "ω": 1413,
        "든": 1414,
        "ş": 1415,
        "♢": 1416,
        "ア": 1417,
        "政": 1418,
        "ȕ": 1419,
        "Ꮓ": 1420,
        "✨": 1421,
        "州": 1422,
        "├": 1423,
        "ဖ": 1424,
        "닭": 1425,
        "Ｐ": 1426,
        "ው": 1427,
        "화": 1428,
        "工": 1429,
        "促": 1430,
        "획": 1431,
        "ᚨ": 1432,
        "Ş": 1433,
        "無": 1434,
        "ㄥ": 1435,
        "Ｓ": 1436,
        "Ή": 1437,
        "\\": 1438,
        "ɥ": 1439,
        "：": 1440,
        "Ｇ": 1441,
        "G": 1442,
        "管": 1443,
        "☰": 1444,
        "様": 1445,
        "И": 1446,
        "紙": 1447,
        "让": 1448,
        "∞": 1449,
        "ー": 1450,
        "i": 1451,
        "勒": 1452,
        "ｂ": 1453,
        "원": 1454,
        "Ë": 1455,
        "խ": 1456,
        "♎": 1457,
        "ा": 1458,
        "毅": 1459,
        "欺": 1460,
        "🎺": 1461,
        "ώ": 1462,
        "😃": 1463,
        "丸": 1464,
        "λ": 1465,
        "学": 1466,
        "맙": 1467,
        "粹": 1468,
        "သ": 1469,
        "ኛ": 1470,
        " ": 1471,
        "罪": 1472,
        "♥": 1473,
        "щ": 1474,
        "ĸ": 1475,
        "報": 1476,
        "ก": 1477,
        "･": 1478,
        "✔": 1479,
        "ų": 1480,
        "┻": 1481,
        "奧": 1482,
        "𝘺": 1483,
        "👀": 1484,
        "ư": 1485,
        "점": 1486,
        "Q": 1487,
        "玩": 1488,
        "ش": 1489,
        "발": 1490,
        "저": 1491,
        "總": 1492,
        "ੁ": 1493,
        "픈": 1494,
        "☜": 1495,
        "🏱": 1496,
        "翻": 1497,
        "บ": 1498,
        "会": 1499,
        "ミ": 1500,
        "င": 1501,
        "は": 1502,
        "個": 1503,
        "Ω": 1504,
        "必": 1505,
        "Ꮮ": 1506,
        "⠙": 1507,
        "Ш": 1508,
        "□": 1509,
        "ை": 1510,
        "単": 1511,
        "ａ": 1512,
        "ठ": 1513,
        "✠": 1514,
        "語": 1515,
        "ź": 1516,
        "Ȧ": 1517,
        "ள": 1518,
        "Ｘ": 1519,
        "З": 1520,
        "ግ": 1521,
        "È": 1522,
        "號": 1523,
        "ঙ": 1524,
        "ḍ": 1525,
        "©": 1526,
        "｀": 1527,
        "万": 1528,
        "调": 1529,
        "⠊": 1530,
        "😢": 1531,
        "弱": 1532,
        "≤": 1533,
        "点": 1534,
        "く": 1535,
        "ó": 1536,
        "त": 1537,
        "ｆ": 1538,
        "¥": 1539,
        "・": 1540,
        "肯": 1541,
        "✓": 1542,
        "吗": 1543,
        "ས": 1544,
        "ĉ": 1545,
        "护": 1546,
        "ל": 1547,
        "̒": 1548,
        "泽": 1549,
        "校": 1550,
        "ץ": 1551,
        "ৌ": 1552,
        "ड": 1553,
        "ک": 1554,
        "ů": 1555,
        "𝘮": 1556,
        "會": 1557,
        "¢": 1558,
        "Д": 1559,
        "1": 1560,
        "ⅰ": 1561,
        "ė": 1562,
        "֏": 1563,
        "ℓ": 1564,
        "ጻ": 1565,
        "天": 1566,
        "留": 1567,
        "ہ": 1568,
        "⏅": 1569,
        "р": 1570,
        "독": 1571,
        "눈": 1572,
        "망": 1573,
        "ھ": 1574,
        "将": 1575,
        "✍": 1576,
        "少": 1577,
        "á": 1578,
        "Ñ": 1579,
        "Ꭰ": 1580,
        "ķ": 1581,
        "᷇": 1582,
        "讲": 1583,
        "对": 1584,
        "Ꭾ": 1585,
        "ʢ": 1586,
        "f": 1587,
        "ܜ": 1588,
        "星": 1589,
        "ﬁ": 1590,
        "ᖷ": 1591,
        "卷": 1592,
        "厦": 1593,
        "̯": 1594,
        "ร": 1595,
        "ｕ": 1596,
        "리": 1597,
        "ಮ": 1598,
        "औ": 1599,
        "떨": 1600,
        "Ừ": 1601,
        "ུ": 1602,
        "음": 1603,
        "ᶜ": 1604,
        "κ": 1605,
        "𝘌": 1606,
        "Ϣ": 1607,
        "ズ": 1608,
        "告": 1609,
        "殺": 1610,
        "ɚ": 1611,
        "Á": 1612,
        "직": 1613,
        "オ": 1614,
        "Բ": 1615,
        "💕": 1616,
        "ﭰ": 1617,
        "Ｗ": 1618,
        "ֵ": 1619,
        "👓": 1620,
        "ई": 1621,
        "여": 1622,
        "᷀": 1623,
        "̤": 1624,
        "更": 1625,
        "ع": 1626,
        "カ": 1627,
        "ᨄ": 1628,
        "盛": 1629,
        "𝘴": 1630,
        "村": 1631,
        "된": 1632,
        "᷆": 1633,
        "◾": 1634,
        "開": 1635,
        "＊": 1636,
        "ঝ": 1637,
        "ɘ": 1638,
        "ắ": 1639,
        "々": 1640,
        "Ζ": 1641,
        "ⓑ": 1642,
        "느": 1643,
        "题": 1644,
        "的": 1645,
        "Ő": 1646,
        "립": 1647,
        "ﬂ": 1648,
        "身": 1649,
        "해": 1650,
        "ᘿ": 1651,
        ">": 1652,
        "█": 1653,
        "Ծ": 1654,
        "झ": 1655,
        "2": 1656,
        "월": 1657,
        "추": 1658,
        "亚": 1659,
        "व": 1660,
        "Ō": 1661,
        "别": 1662,
        "ǒ": 1663,
        "ய": 1664,
        "돼": 1665,
        "‪": 1666,
        "通": 1667,
        "ေ": 1668,
        "내": 1669,
        "跨": 1670,
        "ഡ": 1671,
        "룡": 1672,
        "ᗱ": 1673,
        "ፍ": 1674,
        "계": 1675,
        "父": 1676,
        "u": 1677,
        "Ă": 1678,
        "😧": 1679,
        "Ê": 1680,
        "你": 1681,
        "ᵀ": 1682,
        "": 1683,
        "ɐ": 1684,
        "🙂": 1685,
        "ጨ": 1686,
        "̊": 1687,
        "E": 1688,
        "ͮ": 1689,
        "̣": 1690,
        "Õ": 1691,
        "🌎": 1692,
        "": 1693,
        "丁": 1694,
        "ц": 1695,
        "‍": 1696,
        "כ": 1697,
        "̈": 1698,
        "Щ": 1699,
        "明": 1700,
        "ｻ": 1701,
        "Î": 1702,
        "^": 1703,
        "|": 1704,
        "🐱": 1705,
        "🔫": 1706,
        "ᘜ": 1707,
        "ơ": 1708,
        "😏": 1709,
        "泰": 1710,
        "এ": 1711,
        "ಿ": 1712,
        "ϰ": 1713,
        "😳": 1714,
        "到": 1715,
        "Ꭼ": 1716,
        "é": 1717,
        "😰": 1718,
        "Ū": 1719,
        "ɯ": 1720,
        "ɤ": 1721,
        "¤": 1722,
        "할": 1723,
        "◈": 1724,
        "些": 1725,
        "ค": 1726,
        "℉": 1727,
        "钩": 1728,
        "硬": 1729,
        "я": 1730,
        "ل": 1731,
        "👰": 1732,
        "📞": 1733,
        "那": 1734,
        "터": 1735,
        "Ṣ": 1736,
        "ጵ": 1737,
        "መ": 1738,
        "融": 1739,
        "晚": 1740,
        "样": 1741,
        "内": 1742,
        "စ": 1743,
        "ਇ": 1744,
        "⎔": 1745,
        "章": 1746,
        "v": 1747,
        "신": 1748,
        "Ｙ": 1749,
        "蠢": 1750,
        "处": 1751,
        "इ": 1752,
        "ح": 1753,
        "💀": 1754,
        "̆": 1755,
        "Κ": 1756,
        "今": 1757,
        "况": 1758,
        "边": 1759,
        "受": 1760,
        "ｊ": 1761,
        "Ä": 1762,
        "了": 1763,
        "⁈": 1764,
        "U": 1765,
        "è": 1766,
        "7": 1767,
        "昇": 1768,
        "登": 1769,
        "即": 1770,
        "»": 1771,
        "म": 1772,
        "져": 1773,
        "別": 1774,
        "嘲": 1775,
        "ジ": 1776,
        "S": 1777,
        "Ρ": 1778,
        "ू": 1779,
        "奶": 1780,
        "": 1781,
        "̹": 1782,
        "画": 1783,
        "補": 1784,
        "Ы": 1785,
        "ͪ": 1786,
        "섯": 1787,
        "ʹ": 1788,
        "⭐": 1789,
        "私": 1790,
        "Я": 1791,
        "в": 1792,
        "김": 1793,
        "ፏ": 1794,
        "ص": 1795,
        "년": 1796,
        "ę": 1797,
        "𝑖": 1798,
        "໐": 1799,
        "나": 1800,
        "Χ": 1801,
        "Ｖ": 1802,
        "͚": 1803,
        "ͣ": 1804,
        "့": 1805,
        "⁉": 1806,
        "字": 1807,
        "っ": 1808,
        "͓": 1809,
        "ἓ": 1810,
        "议": 1811,
        "义": 1812,
        "備": 1813,
        "ȉ": 1814,
        "П": 1815,
        "Ꮯ": 1816,
        "ن": 1817,
        "ż": 1818,
        "›": 1819,
        "উ": 1820,
        "\b": 1821,
        "អ": 1822,
        "Ⅎ": 1823,
        "F": 1824,
        "行": 1825,
        "러": 1826,
        "🐬": 1827,
        "є": 1828,
        "ಹ": 1829,
        "ğ": 1830,
        "指": 1831,
        "😭": 1832,
        "►": 1833,
        "女": 1834,
        "る": 1835,
        "ị": 1836,
        "預": 1837,
        "ܐ": 1838,
        "睾": 1839,
        "통": 1840,
        "э": 1841,
        "√": 1842,
        "道": 1843,
        "칠": 1844,
        "𒌬": 1845,
        "下": 1846,
        "ƒ": 1847,
        "O": 1848,
        "를": 1849,
        "れ": 1850,
        "ｍ": 1851,
        "로": 1852,
        "息": 1853,
        "😐": 1854,
        "�": 1855,
        "语": 1856,
        "л": 1857,
        "Ｈ": 1858,
        "Ｂ": 1859,
        "𝘤": 1860,
        "어": 1861,
        "ዎ": 1862,
        "臨": 1863,
        "厂": 1864,
        "ᚦ": 1865,
        "ʘ": 1866,
        "œ": 1867,
        "金": 1868,
        "😎": 1869,
        "་": 1870,
        "ត": 1871,
        "ß": 1872,
        "̈́": 1873,
        "נ": 1874,
        "ಳ": 1875,
        "ト": 1876,
        "🐇": 1877,
        "h": 1878,
        "ើ": 1879,
        "为": 1880,
        "ח": 1881,
        "ᴡ": 1882,
        "킨": 1883,
        "計": 1884,
        "⠑": 1885,
        "ੇ": 1886,
        "か": 1887,
        "作": 1888,
        "️": 1889,
        "ग": 1890,
        "ꕸ": 1891,
        "ⓞ": 1892,
        "𝐚": 1893,
        "ଠ": 1894,
        "ှ": 1895,
        "国": 1896,
        "ɢ": 1897,
        "ㅇ": 1898,
        "𝑢": 1899,
        "银": 1900,
        "Þ": 1901,
        "⦖": 1902,
        "Ｕ": 1903,
        "l": 1904,
        "山": 1905,
        "📪": 1906,
        "郎": 1907,
        "麼": 1908,
        "否": 1909,
        "ष": 1910,
        "̫": 1911,
        "們": 1912,
        "버": 1913,
        "ø": 1914,
        "½": 1915,
        "‰": 1916,
        "來": 1917,
        "▀": 1918,
        "ೕ": 1919,
        "연": 1920,
        "ር": 1921,
        "！": 1922,
        "程": 1923,
        "": 1924,
        "❦": 1925,
        "👮": 1926,
        "↻": 1927,
        "ך": 1928,
        "â": 1929,
        "ם": 1930,
        "ェ": 1931,
        "ο": 1932,
        "宁": 1933,
        "딸": 1934,
        "残": 1935,
        "च": 1936,
        "ù": 1937,
        "⬧": 1938,
        "没": 1939,
        "घ": 1940,
        "ͦ": 1941,
        "↦": 1942,
        "🎶": 1943,
        "去": 1944,
        "የ": 1945,
        "ਸ": 1946,
        "恐": 1947,
        "際": 1948,
        "ெ": 1949,
        "Р": 1950,
        "ទ": 1951,
        "览": 1952,
        "흔": 1953,
        "ꄅ": 1954,
        "◕": 1955,
        "எ": 1956,
        "哪": 1957,
        "န": 1958,
        "ち": 1959,
        "影": 1960,
        "ᵯ": 1961,
        "ド": 1962,
        "េ": 1963,
        "ṁ": 1964,
        "இ": 1965,
        "𝑐": 1966,
        "－": 1967,
        "က": 1968,
        "𝑡": 1969,
        "Ž": 1970,
        "=": 1971,
        "͐": 1972,
        "离": 1973,
        "문": 1974,
        "⋅": 1975,
        "🍦": 1976,
        "黨": 1977,
        "帝": 1978,
        "尾": 1979,
        "அ": 1980,
        "👊": 1981,
        "̭": 1982,
        "ೆ": 1983,
        "°": 1984,
        "🔥": 1985,
        "": 1986,
        "Û": 1987,
        "デ": 1988,
        "闘": 1989,
        "ੱ": 1990,
        "食": 1991,
        "真": 1992,
        "魁": 1993,
        "ō": 1994,
        "𝘰": 1995,
        "宮": 1996,
        "ᵘ": 1997,
        "提": 1998,
        "\u000f": 1999,
        "好": 2000,
        "ल": 2001,
        "老": 2002,
        "ͬ": 2003,
        "ǫ": 2004,
        "屎": 2005,
        "ŏ": 2006,
        "ম": 2007,
        "았": 2008,
        "ǎ": 2009,
        "婆": 2010,
        "ৎ": 2011,
        "ǐ": 2012,
        "Ń": 2013,
        "Ě": 2014,
        "͞": 2015,
        "🗽": 2016,
        "卧": 2017,
        "💗": 2018,
        "期": 2019,
        "❒": 2020,
        "伝": 2021,
        "⠗": 2022,
        "ͤ": 2023,
        "ằ": 2024,
        "┬": 2025,
        "∎": 2026,
        "和": 2027,
        "パ": 2028,
        "έ": 2029,
        "送": 2030,
        "入": 2031,
        "⌲": 2032,
        "ᵗ": 2033,
        "ɡ": 2034,
        "¸": 2035,
        "צ": 2036,
        "ವ": 2037,
        "ስ": 2038,
        "素": 2039,
        "体": 2040,
        "終": 2041,
        "ਜ": 2042,
        "ɵ": 2043,
        "것": 2044,
        "寫": 2045,
        "y": 2046,
        "ह": 2047,
        "Ｋ": 2048,
        "Ꮍ": 2049,
        "心": 2050,
        "快": 2051,
        "👨": 2052,
        "ᆩ": 2053,
        "Τ": 2054,
        "💍": 2055,
        "ᔢ": 2056,
        "니": 2057,
        "͉": 2058,
        "세": 2059,
        "ϐ": 2060,
        "⠁": 2061,
        "्": 2062,
        "̙": 2063,
        "ಲ": 2064,
        "ஸ": 2065,
        "爱": 2066,
        "ះ": 2067,
        "呀": 2068,
        "灯": 2069,
        "⚠": 2070,
        "罚": 2071,
        "▒": 2072,
        "间": 2073,
        "ᵿ": 2074,
        "য়": 2075,
        "5": 2076,
        "′": 2077,
        "े": 2078,
        "Ό": 2079,
        "世": 2080,
        "→": 2081,
        "♭": 2082,
        "P": 2083,
        "ネ": 2084,
        "都": 2085,
        "ń": 2086,
        "킷": 2087,
        "ế": 2088,
        "͂": 2089,
        "或": 2090,
        "」": 2091,
        "ূ": 2092,
        "彡": 2093,
        "à": 2094,
        "모": 2095,
        "🐝": 2096,
        "ζ": 2097,
        "꼈": 2098,
        "ਮ": 2099,
        "怕": 2100,
        "说": 2101,
        "ሷ": 2102,
        "♫": 2103,
        "¶": 2104,
        "國": 2105,
        "매": 2106,
        "民": 2107,
        "⨕": 2108,
        "п": 2109,
        "ᴛ": 2110,
        "̨": 2111,
        "水": 2112,
        "ከ": 2113,
        "👯": 2114,
        "华": 2115,
        "ꔸ": 2116,
        "ㅗ": 2117,
        "비": 2118,
        "他": 2119,
        "य": 2120,
        "ə": 2121,
        "逃": 2122,
        "™": 2123,
        "ĝ": 2124,
        "ъ": 2125,
        "こ": 2126,
        "ṇ": 2127,
        "Ϡ": 2128,
        "晕": 2129,
        "エ": 2130,
        "ṣ": 2131,
        "跑": 2132,
        "Ь": 2133,
        "ನ": 2134,
        "%": 2135,
        "क": 2136,
        "p": 2137,
        "\u0010": 2138,
        "복": 2139,
        "Ѡ": 2140,
        "打": 2141,
        "付": 2142,
        "尼": 2143,
        "Ԩ": 2144,
        "": 2145,
        "采": 2146,
        "热": 2147,
        "ｓ": 2148,
        "͏": 2149,
        "停": 2150,
        "없": 2151,
        "吧": 2152,
        "동": 2153,
        "平": 2154,
        "公": 2155,
        "口": 2156,
        "种": 2157,
        "∀": 2158,
        "ì": 2159,
        "觉": 2160,
        "জ": 2161,
        "希": 2162,
        "̘": 2163,
        "😯": 2164,
        "ὅ": 2165,
        "ｖ": 2166,
        "└": 2167,
        "偉": 2168,
        "┏": 2169,
        "Մ": 2170,
        "̑": 2171,
        "◀": 2172,
        "ɨ": 2173,
        "≧": 2174,
        "Ֆ": 2175,
        "╬": 2176,
        "ਲ": 2177,
        "͔": 2178,
        "坐": 2179,
        "芸": 2180,
        "凶": 2181,
        "路": 2182,
        "လ": 2183,
        "ӕ": 2184,
        "": 2185,
        "订": 2186,
        "盖": 2187,
        "י": 2188,
        "º": 2189,
        "Υ": 2190,
        "😠": 2191,
        "⠉": 2192,
        "☉": 2193,
        "類": 2194,
        "育": 2195,
        "ɿ": 2196,
        "잘": 2197,
        "ဲ": 2198,
        "╯": 2199,
        "̜": 2200,
        "⁴": 2201,
        "⇔": 2202,
        "ƿ": 2203,
        "Ꮖ": 2204,
        "ү": 2205,
        "ⱱ": 2206,
        "ժ": 2207,
        "͍": 2208,
        "グ": 2209,
        "़": 2210,
        "게": 2211,
        "̞": 2212,
        "做": 2213,
        "ं": 2214,
        "ь": 2215,
        "[": 2216,
        "드": 2217,
        "ồ": 2218,
        "界": 2219,
        ")": 2220,
        "ே": 2221,
        "💋": 2222,
        "ʙ": 2223,
        "∆": 2224,
        "お": 2225,
        "💘": 2226,
        "Վ": 2227,
        "ⓜ": 2228,
        "~": 2229,
        "ണ": 2230,
        "야": 2231,
        "ァ": 2232,
        "局": 2233,
        "평": 2234,
        "̇": 2235,
        "ͧ": 2236,
        "예": 2237,
        "分": 2238,
        "했": 2239,
        "е": 2240,
        "ξ": 2241,
        "ム": 2242,
        "ջ": 2243,
        "随": 2244,
        "ಾ": 2245,
        "҇": 2246,
        "之": 2247,
        "۹": 2248,
        "У": 2249,
        "费": 2250,
        "ƽ": 2251,
        "༽": 2252,
        "𝘢": 2253,
        "⧲": 2254,
        "͠": 2255,
        "啥": 2256,
        "ف": 2257,
        "̛": 2258,
        "领": 2259,
        "ȝ": 2260,
        "よ": 2261,
        "ĭ": 2262,
        "Ț": 2263,
        "⌐": 2264,
        "さ": 2265,
        "╗": 2266,
        "민": 2267,
        "央": 2268,
        "゜": 2269,
        "и": 2270,
        "❄": 2271,
        "ờ": 2272,
        "ஜ": 2273,
        "𝘩": 2274,
        "众": 2275,
        "셔": 2276,
        "ħ": 2277,
        "ᶫ": 2278,
        "📊": 2279,
        "🕯": 2280,
        "度": 2281,
        "ン": 2282,
        "❧": 2283,
        "ৈ": 2284,
        "ᚽ": 2285,
        "习": 2286,
        "𝐞": 2287,
        "称": 2288,
        "ק": 2289,
        "ㄅ": 2290,
        "里": 2291,
        "ར": 2292,
        "q": 2293,
        "喰": 2294,
        "ன": 2295,
        "ដ": 2296,
        "ʖ": 2297,
        "迟": 2298,
        "͊": 2299,
        "친": 2300,
        "💯": 2301,
        "七": 2302,
        "願": 2303,
        "난": 2304,
        "ć": 2305,
        "性": 2306,
        "迷": 2307,
        "◎": 2308,
        "ন": 2309,
        "特": 2310,
        "ʀ": 2311,
        "습": 2312,
        "₰": 2313,
        "Č": 2314,
        "ệ": 2315,
        "؟": 2316,
        "˙": 2317,
        "갑": 2318,
        "한": 2319,
        "注": 2320,
        "發": 2321,
        "̚": 2322,
        "̄": 2323,
        "💩": 2324,
        "ψ": 2325,
        "⑥": 2326,
        "ယ": 2327,
        "委": 2328,
        "监": 2329,
        "⅋": 2330,
        "階": 2331,
        "þ": 2332,
        "ז": 2333,
        "合": 2334,
        "汞": 2335,
        "Н": 2336,
        "ဉ": 2337,
        "Ｏ": 2338,
        "💼": 2339,
        "용": 2340,
        "ʒ": 2341,
        "虾": 2342,
        "↑": 2343,
        "😀": 2344,
        "ᗕ": 2345,
        "产": 2346,
        "♍": 2347,
        "╪": 2348,
        "b": 2349,
        "·": 2350,
        "ｪ": 2351,
        "シ": 2352,
        "十": 2353,
        "聰": 2354,
        "א": 2355,
        "ё": 2356,
        "␉": 2357,
        "共": 2358,
        "ː": 2359,
        "ü": 2360,
        "ʌ": 2361,
        "к": 2362,
        "ð": 2363,
        "品": 2364,
        "属": 2365,
        "支": 2366,
        "鬼": 2367,
        "Ӝ": 2368,
        "♬": 2369,
        "巴": 2370,
        "Ð": 2371,
        "馬": 2372,
        "ת": 2373,
        "💜": 2374,
        "失": 2375,
        "십": 2376,
        "ঘ": 2377,
        "Ę": 2378,
        "̶": 2379,
        "ヶ": 2380,
        "Ѧ": 2381,
        "想": 2382,
        "哦": 2383,
        "欢": 2384,
        "知": 2385,
        "ث": 2386,
        "Ꮶ": 2387,
        "প": 2388,
        "릇": 2389,
        "گ": 2390,
        "纷": 2391,
        "ы": 2392,
        "의": 2393,
        "خ": 2394,
        "亡": 2395,
        "バ": 2396,
        "ิ": 2397,
        "괜": 2398,
        "̏": 2399,
        "爸": 2400,
        "В": 2401,
        "ز": 2402,
        "ǔ": 2403,
        "᏿": 2404,
        "ぎ": 2405,
        "存": 2406,
        "𝑒": 2407,
        "兄": 2408,
        "고": 2409,
        "ீ": 2410,
        "錯": 2411,
        "유": 2412,
        "ੂ": 2413,
        "̠": 2414,
        "Ǩ": 2415,
        "力": 2416,
        "⬆": 2417,
        "ᵒ": 2418,
        "𝑙": 2419,
        "▪": 2420,
        "法": 2421,
        "ｔ": 2422,
        "ε": 2423,
        "͒": 2424,
        "ʊ": 2425,
        "ᴥ": 2426,
        "지": 2427,
        "△": 2428,
        "활": 2429,
        "ই": 2430,
        "𝑛": 2431,
        "👍": 2432,
        "☹": 2433,
        "ੀ": 2434,
        "德": 2435,
        "ד": 2436,
        "났": 2437,
        "৩": 2438,
        "̎": 2439,
        "ো": 2440,
        "☀": 2441,
        "て": 2442,
        "온": 2443,
        "Š": 2444,
        "用": 2445,
        "¡": 2446,
        "ᴅ": 2447,
        "গ": 2448,
        "Å": 2449,
        "ハ": 2450,
        "Ｎ": 2451,
        "ġ": 2452,
        "́": 2453,
        "조": 2454,
        "╟": 2455,
        "👝": 2456,
        "C": 2457,
        "থ": 2458,
        "过": 2459,
        "眼": 2460,
        "ষ": 2461,
        "₮": 2462,
        "𝘯": 2463,
        "й": 2464,
        "び": 2465,
        "ͭ": 2466,
        "€": 2467,
        "当": 2468,
        "Հ": 2469,
        "ʳ": 2470,
        "Գ": 2471,
        "納": 2472,
        "ں": 2473,
        "न": 2474,
        "ለ": 2475,
        "Ĉ": 2476,
        "━": 2477,
        "ན": 2478,
        "Ā": 2479,
        "升": 2480,
        "x": 2481,
        "̔": 2482,
        "̮": 2483,
        "市": 2484,
        "∑": 2485,
        "҉": 2486,
        "清": 2487,
        "s": 2488,
        "ċ": 2489,
        "を": 2490,
        "ន": 2491,
        "⅕": 2492,
        "🔬": 2493,
        "⪰": 2494,
        "郭": 2495,
        "ḳ": 2496,
        "공": 2497,
        "晴": 2498,
        "ṃ": 2499,
        "正": 2500,
        "自": 2501,
        "#": 2502,
        "ट": 2503,
        "毛": 2504,
        "ɛ": 2505,
        "ò": 2506,
        "É": 2507,
        "적": 2508,
        "!": 2509,
        "古": 2510,
        "キ": 2511,
        "얼": 2512,
        "Ė": 2513,
        "¯": 2514,
        "科": 2515,
        "ማ": 2516,
        "便": 2517,
        "택": 2518,
        "︵": 2519,
        "🦄": 2520,
        "ύ": 2521,
        "竜": 2522,
        "発": 2523,
        "🐸": 2524,
        "욕": 2525,
        "偷": 2526,
        "당": 2527,
        "？": 2528,
        "দ": 2529,
        "À": 2530,
        "็": 2531,
        "个": 2532,
        "ㄚ": 2533,
        "ᦚ": 2534,
        "所": 2535,
        "령": 2536,
        "💦": 2537,
        "침": 2538,
        "얻": 2539,
        "ッ": 2540,
        "毒": 2541,
        "레": 2542,
        "高": 2543,
        "": 2544,
        "任": 2545,
        "ｋ": 2546,
        "₤": 2547,
        "⌘": 2548,
        "𝘷": 2549,
        "᷂": 2550,
        "ˊ": 2551,
        "👫": 2552,
        "같": 2553,
        "겨": 2554,
        "リ": 2555,
        "レ": 2556,
        "後": 2557,
        "♐": 2558,
        "": 2559,
        "र": 2560,
        "Ł": 2561,
        "医": 2562,
        "ᵇ": 2563,
        "件": 2564,
        "ʃ": 2565,
        "次": 2566,
        "ី": 2567,
        "Δ": 2568,
        "℅": 2569,
        "͢": 2570,
        "ጁ": 2571,
        "ᗒ": 2572,
        "𝑑": 2573,
        "ɟ": 2574,
        "四": 2575,
        "͌": 2576,
        "＇": 2577,
        "❂": 2578,
        "]": 2579,
        "❤": 2580,
        "ｉ": 2581,
        "夫": 2582,
        "ⓢ": 2583,
        "物": 2584,
        "泉": 2585,
        "ɔ": 2586,
        "種": 2587,
        "六": 2588,
        "ည": 2589,
        "🙌": 2590,
        "̵": 2591,
        "ʞ": 2592,
        "м": 2593,
        "이": 2594,
        "負": 2595,
        "}": 2596,
        "ؤ": 2597,
        "嵐": 2598,
        "ག": 2599,
        "¹": 2600,
        "σ": 2601,
        "現": 2602,
        "𝘨": 2603,
        "🐕": 2604,
        "叫": 2605,
        "ᵉ": 2606,
        "💔": 2607,
        "ő": 2608,
        "ฯ": 2609,
        "外": 2610,
        "̱": 2611,
        "Μ": 2612,
        "ら": 2613,
        "😬": 2614,
        "ʅ": 2615,
        "Ȩ": 2616,
        "ⱸ": 2617,
        "Α": 2618,
        "份": 2619,
        "น": 2620,
        "ገ": 2621,
        "進": 2622,
        "Ｍ": 2623,
        "き": 2624,
        "긴": 2625,
        "‌": 2626,
        "府": 2627,
        "ˌ": 2628,
        "😡": 2629,
        "犯": 2630,
        "z": 2631,
        "病": 2632,
        "²": 2633,
        "😁": 2634,
        "⟨": 2635,
        "ʜ": 2636,
        "ਦ": 2637,
        "ែ": 2638,
        "í": 2639,
        "庭": 2640,
        "Z": 2641,
        "⏎": 2642,
        "ʔ": 2643,
        "ँ": 2644,
        "┐": 2645,
        "ध": 2646,
        "Ꮲ": 2647,
        "木": 2648,
        "她": 2649,
        "并": 2650,
        "ល": 2651,
        "⊛": 2652,
        "卐": 2653,
        "渡": 2654,
        "常": 2655,
        "す": 2656,
        "ओ": 2657,
        "Ì": 2658,
        "ヾ": 2659,
        "督": 2660,
        "른": 2661,
        "͡": 2662,
        "ጋ": 2663,
        "富": 2664,
        "😫": 2665,
        "）": 2666,
        "坚": 2667,
        "𝘦": 2668,
        "运": 2669,
        "у": 2670,
        "♑": 2671,
        "​": 2672,
        "业": 2673,
        "𝐬": 2674,
        "⎯": 2675,
        "ɽ": 2676,
        "ዢ": 2677,
        "अ": 2678,
        "đ": 2679,
        "ス": 2680,
        "し": 2681,
        "💣": 2682,
        "명": 2683,
        "ピ": 2684,
        "᷾": 2685,
        "Ⓝ": 2686,
        "س": 2687,
        "반": 2688,
        "আ": 2689,
        "살": 2690,
        "•": 2691,
        "ଈ": 2692,
        "𝘵": 2693,
        "ū": 2694,
        "각": 2695,
        "乃": 2696,
        "Ѫ": 2697,
        "…": 2698,
        "9": 2699,
        "–": 2700,
        "ब": 2701,
        "激": 2702,
        "鵬": 2703,
        "独": 2704,
        "太": 2705,
        "牛": 2706,
        "Ａ": 2707,
        "勹": 2708,
        "神": 2709,
        "😉": 2710,
        "ᕗ": 2711,
        "Ｒ": 2712,
        "雅": 2713,
        "å": 2714,
        "인": 2715,
        "海": 2716,
        "号": 2717,
        "$": 2718,
        "ǩ": 2719,
        "Η": 2720,
        "𝑟": 2721,
        "龟": 2722,
        "▼": 2723,
        "坎": 2724,
        "악": 2725,
        "̼": 2726,
        "ϭ": 2727,
        "ူ": 2728,
        "ñ": 2729,
        "安": 2730,
        "«": 2731,
        "면": 2732,
        "못": 2733,
        "𝘥": 2734,
        "з": 2735,
        "序": 2736,
        "ֆ": 2737,
        "ã": 2738,
        "ਘ": 2739,
        "⌀": 2740,
        "چ": 2741,
        "ῦ": 2742,
        "শ": 2743,
        "ஆ": 2744,
        "̂": 2745,
        "ᛃ": 2746,
        "溃": 2747,
        "±": 2748,
        "m": 2749,
        "裔": 2750,
        "͟": 2751,
        "Ǭ": 2752,
        "ो": 2753,
        "日": 2754,
        "알": 2755,
        "e</w>": 2756,
        " t": 2757,
        "d</w>": 2758,
        "t</w>": 2759,
        "s</w>": 2760,
        " a": 2761,
        " th": 2762,
        "in": 2763,
        ".</w>": 2764,
        " .</w>": 2765,
        " s": 2766,
        " w": 2767,
        "er": 2768,
        "y</w>": 2769,
        " h": 2770,
        " ,": 2771,
        " ,</w>": 2772,
        " \n": 2773,
        "n</w>": 2774,
        " o": 2775,
        "o</w>": 2776,
        " the</w>": 2777,
        "ed</w>": 2778,
        "ou": 2779,
        " b": 2780,
        " m": 2781,
        "g</w>": 2782,
        " f": 2783,
        " c": 2784,
        " I": 2785,
        "ing</w>": 2786,
        "nd</w>": 2787,
        "or": 2788,
        "er</w>": 2789,
        "ea": 2790,
        " d": 2791,
        " I</w>": 2792,
        " '": 2793,
        "f</w>": 2794,
        " \n \n": 2795,
        " to</w>": 2796,
        " l": 2797,
        "ll": 2798,
        " n": 2799,
        " p": 2800,
        " and</w>": 2801,
        "h</w>": 2802,
        " i": 2803,
        " a</w>": 2804,
        " wa": 2805,
        " \n \n ": 2806,
        "en": 2807,
        " in": 2808,
        " of</w>": 2809,
        " r": 2810,
        " g": 2811,
        "om": 2812,
        "ar": 2813,
        "it": 2814,
        "on": 2815,
        "ow": 2816,
        "at</w>": 2817,
        " ha": 2818,
        " y": 2819,
        "es</w>": 2820,
        "k</w>": 2821,
        "is</w>": 2822,
        "en</w>": 2823,
        "ll</w>": 2824,
        "r</w>": 2825,
        "es": 2826,
        " you": 2827,
        " was</w>": 2828,
        "`</w>": 2829,
        "an": 2830,
        "``</w>": 2831,
        "el": 2832,
        " ''": 2833,
        " ''</w>": 2834,
        "Th": 2835,
        "at": 2836,
        " in</w>": 2837,
        "m</w>": 2838,
        " e": 2839,
        "ic": 2840,
        " st": 2841,
        "ut</w>": 2842,
        "st</w>": 2843,
        "ve</w>": 2844,
        " wh": 2845,
        "ac": 2846,
        " it</w>": 2847,
        "ld</w>": 2848,
        " u": 2849,
        "oo": 2850,
        "or</w>": 2851,
        " you</w>": 2852,
        " Th": 2853,
        " that</w>": 2854,
        "le</w>": 2855,
        "ly</w>": 2856,
        "th": 2857,
        "l</w>": 2858,
        "ur": 2859,
        "p</w>": 2860,
        "ere</w>": 2861,
        "is": 2862,
        " sh": 2863,
        " be": 2864,
        " my</w>": 2865,
        "gh": 2866,
        "on</w>": 2867,
        "an</w>": 2868,
        "ow</w>": 2869,
        " the": 2870,
        " his</w>": 2871,
        " W": 2872,
        " H": 2873,
        " A": 2874,
        "ec": 2875,
        "?</w>": 2876,
        " ?</w>": 2877,
        " k": 2878,
        " he</w>": 2879,
        " li": 2880,
        " S": 2881,
        " wit": 2882,
        "ould</w>": 2883,
        " \n \n ``</w>": 2884,
        "se</w>": 2885,
        "ke</w>": 2886,
        " for</w>": 2887,
        " on</w>": 2888,
        "ir": 2889,
        " fr": 2890,
        "et</w>": 2891,
        "ot</w>": 2892,
        " with</w>": 2893,
        " me</w>": 2894,
        "id</w>": 2895,
        " as</w>": 2896,
        "ght</w>": 2897,
        "im": 2898,
        "om</w>": 2899,
        " 's</w>": 2900,
        "'t</w>": 2901,
        " n't</w>": 2902,
        " on": 2903,
        " ``</w>": 2904,
        " had</w>": 2905,
        "ay</w>": 2906,
        " ar": 2907,
        " is</w>": 2908,
        "ro": 2909,
        "et": 2910,
        "am": 2911,
        "id": 2912,
        "em": 2913,
        "ion</w>": 2914,
        "ver</w>": 2915,
        "pp": 2916,
        "ver": 2917,
        " her</w>": 2918,
        " at</w>": 2919,
        "ent</w>": 2920,
        "ear": 2921,
        " The</w>": 2922,
        "ain": 2923,
        "st": 2924,
        "ri": 2925,
        "ts</w>": 2926,
        " j": 2927,
        " but</w>": 2928,
        "ked</w>": 2929,
        " this</w>": 2930,
        " M": 2931,
        "ds</w>": 2932,
        " an": 2933,
        "ted</w>": 2934,
        " be</w>": 2935,
        "al</w>": 2936,
        " sa": 2937,
        "ew": 2938,
        "!</w>": 2939,
        " !</w>": 2940,
        "il": 2941,
        "ore</w>": 2942,
        "ra": 2943,
        "rea": 2944,
        " ch": 2945,
        "ter</w>": 2946,
        " kn": 2947,
        " hi": 2948,
        "ce</w>": 2949,
        " have</w>": 2950,
        "ust</w>": 2951,
        " from</w>": 2952,
        " Y": 2953,
        "ir</w>": 2954,
        "uc": 2955,
        " out</w>": 2956,
        " se": 2957,
        "’</w>": 2958,
        " ’</w>": 2959,
        " ma": 2960,
        " int": 2961,
        " up</w>": 2962,
        " He</w>": 2963,
        " B": 2964,
        "a</w>": 2965,
        "lly</w>": 2966,
        "-</w>": 2967,
        "ome</w>": 2968,
        "th</w>": 2969,
        "king</w>": 2970,
        "ack</w>": 2971,
        " wor": 2972,
        " not</w>": 2973,
        "ch": 2974,
        "one</w>": 2975,
        "gh</w>": 2976,
        "ill</w>": 2977,
        " they</w>": 2978,
        " un": 2979,
        "ight</w>": 2980,
        " rea": 2981,
        " It</w>": 2982,
        "un": 2983,
        "um": 2984,
        "ther</w>": 2985,
        "thing</w>": 2986,
        " al": 2987,
        " all</w>": 2988,
        "ent": 2989,
        "ee": 2990,
        " do</w>": 2991,
        "ew</w>": 2992,
        " him</w>": 2993,
        "ge</w>": 2994,
        " sp": 2995,
        " she</w>": 2996,
        "ers</w>": 2997,
        "ol": 2998,
        " were</w>": 2999,
        " ab": 3000,
        " v": 3001,
        "ut": 3002,
        "“</w>": 3003,
        "re": 3004,
        "..</w>": 3005,
        " con": 3006,
        "al": 3007,
        " one</w>": 3008,
        "ound</w>": 3009,
        "”</w>": 3010,
        " ”</w>": 3011,
        "as": 3012,
        " loo": 3013,
        " cl": 3014,
        " D": 3015,
        " we</w>": 3016,
        "ell</w>": 3017,
        " could</w>": 3018,
        " N": 3019,
        " would</w>": 3020,
        "ough</w>": 3021,
        " C": 3022,
        "ing": 3023,
        " You": 3024,
        " .": 3025,
        " ex": 3026,
        "op": 3027,
        " what</w>": 3028,
        "own</w>": 3029,
        " like</w>": 3030,
        " ne": 3031,
        " tim": 3032,
        " pl": 3033,
        " just</w>": 3034,
        " are</w>": 3035,
        " to": 3036,
        "ain</w>": 3037,
        " ...</w>": 3038,
        " do": 3039,
        "out</w>": 3040,
        "ess</w>": 3041,
        "qu": 3042,
        " into</w>": 3043,
        "*</w>": 3044,
        "ting</w>": 3045,
        " Wh": 3046,
        "us": 3047,
        " You</w>": 3048,
        " your</w>": 3049,
        " O": 3050,
        " bl": 3051,
        "ay": 3052,
        "ame</w>": 3053,
        "os": 3054,
        "ab": 3055,
        "if": 3056,
        " T": 3057,
        " so</w>": 3058,
        "ind</w>": 3059,
        "ey</w>": 3060,
        "it</w>": 3061,
        "ch</w>": 3062,
        " back</w>": 3063,
        " mo": 3064,
        " tr": 3065,
        " time</w>": 3066,
        " ag": 3067,
        " did</w>": 3068,
        " an</w>": 3069,
        " E": 3070,
        "ood</w>": 3071,
        " hea": 3072,
        "ace</w>": 3073,
        "oc": 3074,
        " com": 3075,
        "ef": 3076,
        "ep": 3077,
        "ti": 3078,
        " G": 3079,
        " bo": 3080,
        " \n \n Th": 3081,
        " their</w>": 3082,
        " them</w>": 3083,
        "au": 3084,
        "est</w>": 3085,
        "ally</w>": 3086,
        " J": 3087,
        " sm": 3088,
        " been</w>": 3089,
        " P": 3090,
        "--</w>": 3091,
        "ure</w>": 3092,
        "dy</w>": 3093,
        " fl": 3094,
        "he</w>": 3095,
        " there</w>": 3096,
        " by</w>": 3097,
        "ven</w>": 3098,
        " said</w>": 3099,
        "sel": 3100,
        " F": 3101,
        " som": 3102,
        "ded</w>": 3103,
        " su": 3104,
        " sl": 3105,
        " no": 3106,
        " know</w>": 3107,
        " L": 3108,
        "ding</w>": 3109,
        " about</w>": 3110,
        " go": 3111,
        "ide</w>": 3112,
        " sc": 3113,
        "ice</w>": 3114,
        " no</w>": 3115,
        " star": 3116,
        " --</w>": 3117,
        " en": 3118,
        " of": 3119,
        " down</w>": 3120,
        " \n \n I</w>": 3121,
        "__": 3122,
        "[</w>": 3123,
        "]</w>": 3124,
        " ]</w>": 3125,
        " ta": 3126,
        "ks</w>": 3127,
        "ation</w>": 3128,
        " ro": 3129,
        " pr": 3130,
        " can</w>": 3131,
        " ey": 3132,
        " or</w>": 3133,
        " for": 3134,
        " thr": 3135,
        "ar</w>": 3136,
        " as": 3137,
        "in</w>": 3138,
        " man</w>": 3139,
        "ong</w>": 3140,
        " ac": 3141,
        " when</w>": 3142,
        "ity</w>": 3143,
        " pro": 3144,
        "el</w>": 3145,
        " gr": 3146,
        " ca": 3147,
        "ig": 3148,
        " some": 3149,
        " if</w>": 3150,
        " more</w>": 3151,
        "ned</w>": 3152,
        "ic</w>": 3153,
        " ever": 3154,
        "der</w>": 3155,
        "de</w>": 3156,
        " fir": 3157,
        " la": 3158,
        " over</w>": 3159,
        " now</w>": 3160,
        "oun": 3161,
        "ul": 3162,
        " *": 3163,
        "ate</w>": 3164,
        "ely</w>": 3165,
        "ered</w>": 3166,
        "ons</w>": 3167,
        "ess": 3168,
        "P</w>": 3169,
        "self</w>": 3170,
        " qu": 3171,
        "ill": 3172,
        " co": 3173,
        " She</w>": 3174,
        " R": 3175,
        " only</w>": 3176,
        "ist": 3177,
        "ies</w>": 3178,
        " 'm</w>": 3179,
        "ear</w>": 3180,
        " get</w>": 3181,
        "ard</w>": 3182,
        "ur</w>": 3183,
        " bef": 3184,
        " see</w>": 3185,
        " \n \n “</w>": 3186,
        "ine</w>": 3187,
        " wan": 3188,
        " lea": 3189,
        " before</w>": 3190,
        " \n \n The</w>": 3191,
        "ive</w>": 3192,
        " will</w>": 3193,
        " eyes</w>": 3194,
        "ears</w>": 3195,
        " WP</w>": 3196,
        " lo": 3197,
        " fe": 3198,
        "pl": 3199,
        "ite</w>": 3200,
        " cr": 3201,
        "re</w>": 3202,
        " “</w>": 3203,
        " who</w>": 3204,
        " aw": 3205,
        "ved</w>": 3206,
        " some</w>": 3207,
        "ap": 3208,
        " lif": 3209,
        "ays</w>": 3210,
        " pe": 3211,
        " then</w>": 3212,
        " A</w>": 3213,
        "ying</w>": 3214,
        "ag": 3215,
        "ose</w>": 3216,
        " through</w>": 3217,
        "ile</w>": 3218,
        "ook</w>": 3219,
        "pped</w>": 3220,
        "ople</w>": 3221,
        "ning</w>": 3222,
        "ought</w>": 3223,
        "ink</w>": 3224,
        " fa": 3225,
        "iz": 3226,
        " around</w>": 3227,
        "ving</w>": 3228,
        "ry</w>": 3229,
        "fter</w>": 3230,
        " gu": 3231,
        "ed": 3232,
        "tt": 3233,
        " even</w>": 3234,
        "uch</w>": 3235,
        "our": 3236,
        " here</w>": 3237,
        " tw": 3238,
        " tur": 3239,
        " br": 3240,
        " off</w>": 3241,
        " per": 3242,
        " our</w>": 3243,
        "ous</w>": 3244,
        " any": 3245,
        "igh": 3246,
        "ings</w>": 3247,
        " bec": 3248,
        " We</w>": 3249,
        "ell": 3250,
        " :": 3251,
        " :</w>": 3252,
        "tion</w>": 3253,
        " \n \n A": 3254,
        " how</w>": 3255,
        " po": 3256,
        " people</w>": 3257,
        " s</w>": 3258,
        " looked</w>": 3259,
        " But</w>": 3260,
        " im": 3261,
        " never</w>": 3262,
        " They</w>": 3263,
        "sed</w>": 3264,
        " par": 3265,
        " t</w>": 3266,
        " way</w>": 3267,
        "itt": 3268,
        " first</w>": 3269,
        " other</w>": 3270,
        "led</w>": 3271,
        " 're</w>": 3272,
        "ence</w>": 3273,
        " life</w>": 3274,
        " What</w>": 3275,
        " And</w>": 3276,
        " ea": 3277,
        " str": 3278,
        " has</w>": 3279,
        "ev": 3280,
        " cont": 3281,
        " rem": 3282,
        " des": 3283,
        " dis": 3284,
        " again</w>": 3285,
        " day</w>": 3286,
        " still</w>": 3287,
        "ath": 3288,
        " going</w>": 3289,
        " something</w>": 3290,
        " dea": 3291,
        "eep</w>": 3292,
        " sw": 3293,
        " gl": 3294,
        " op": 3295,
        "ff": 3296,
        "ty</w>": 3297,
        " res": 3298,
        "tly</w>": 3299,
        "ue</w>": 3300,
        "ched</w>": 3301,
        " beg": 3302,
        "able</w>": 3303,
        " man": 3304,
        " than</w>": 3305,
        " us</w>": 3306,
        " go</w>": 3307,
        "age</w>": 3308,
        " right</w>": 3309,
        " face</w>": 3310,
        " head</w>": 3311,
        " world</w>": 3312,
        " happ": 3313,
        "b</w>": 3314,
        " 'd</w>": 3315,
        " \n \n \n": 3316,
        "der": 3317,
        " got</w>": 3318,
        "ves</w>": 3319,
        " too</w>": 3320,
        " 've</w>": 3321,
        "hed</w>": 3322,
        "ad": 3323,
        "ant</w>": 3324,
        ";</w>": 3325,
        " ;</w>": 3326,
        " think</w>": 3327,
        " han": 3328,
        "and</w>": 3329,
        "ie</w>": 3330,
        "all</w>": 3331,
        "ble</w>": 3332,
        " car": 3333,
        " away</w>": 3334,
        " every": 3335,
        " hear": 3336,
        " \n \n H": 3337,
        " thought</w>": 3338,
        " years</w>": 3339,
        "ad</w>": 3340,
        " hel": 3341,
        " made</w>": 3342,
        " fin": 3343,
        " bu": 3344,
        " wal": 3345,
        "ie": 3346,
        "ened</w>": 3347,
        "ance</w>": 3348,
        " hum": 3349,
        "w</w>": 3350,
        " last</w>": 3351,
        "ause</w>": 3352,
        " -</w>": 3353,
        " make</w>": 3354,
        " mea": 3355,
        "ger</w>": 3356,
        " \n \n S": 3357,
        "ittle</w>": 3358,
        "ied</w>": 3359,
        " much</w>": 3360,
        "lled</w>": 3361,
        " room</w>": 3362,
        "ory</w>": 3363,
        " after</w>": 3364,
        "ated</w>": 3365,
        " long</w>": 3366,
        " door</w>": 3367,
        "____": 3368,
        "ul</w>": 3369,
        " *</w>": 3370,
        " hand</w>": 3371,
        "ber</w>": 3372,
        "eg": 3373,
        "ick</w>": 3374,
        " where</w>": 3375,
        " '</w>": 3376,
        " dr": 3377,
        "ents</w>": 3378,
        " app": 3379,
        " vo": 3380,
        "ways</w>": 3381,
        " little</w>": 3382,
        " wr": 3383,
        " any</w>": 3384,
        " pu": 3385,
        " 1": 3386,
        "other</w>": 3387,
        "per": 3388,
        " My</w>": 3389,
        " brea": 3390,
        "si": 3391,
        " look</w>": 3392,
        " sur": 3393,
        "son</w>": 3394,
        "ect</w>": 3395,
        "very</w>": 3396,
        " sec": 3397,
        "eft</w>": 3398,
        "dd": 3399,
        " knew</w>": 3400,
        "x</w>": 3401,
        "ich</w>": 3402,
        "ever</w>": 3403,
        " This</w>": 3404,
        " two</w>": 3405,
        " want</w>": 3406,
        "elt</w>": 3407,
        " mon": 3408,
        " That</w>": 3409,
        " No</w>": 3410,
        " left</w>": 3411,
        " few</w>": 3412,
        "ous": 3413,
        " K": 3414,
        "ps</w>": 3415,
        " el": 3416,
        " am</w>": 3417,
        " 'll</w>": 3418,
        " really</w>": 3419,
        "ter": 3420,
        "ort": 3421,
        "ards</w>": 3422,
        "il</w>": 3423,
        " sk": 3424,
        " sto": 3425,
        " pa": 3426,
        " rep": 3427,
        "0</w>": 3428,
        " tri": 3429,
        "and": 3430,
        "ick": 3431,
        " its</w>": 3432,
        " good</w>": 3433,
        "ati": 3434,
        "bl": 3435,
        " always</w>": 3436,
        " bet": 3437,
        "be</w>": 3438,
        " take</w>": 3439,
        " em": 3440,
        " took</w>": 3441,
        "side</w>": 3442,
        " being</w>": 3443,
        " dec": 3444,
        " old</w>": 3445,
        " rec": 3446,
        " say</w>": 3447,
        "xt</w>": 3448,
        "ged</w>": 3449,
        " \n \n *": 3450,
        " There</w>": 3451,
        "wn</w>": 3452,
        " my": 3453,
        "uck</w>": 3454,
        " gra": 3455,
        " came</w>": 3456,
        " U": 3457,
        " felt</w>": 3458,
        "ese</w>": 3459,
        " come</w>": 3460,
        " jo": 3461,
        " thing</w>": 3462,
        " every</w>": 3463,
        " seem": 3464,
        "ort</w>": 3465,
        " dar": 3466,
        "ys</w>": 3467,
        "ss</w>": 3468,
        " mom": 3469,
        " tow": 3470,
        " voice</w>": 3471,
        " ad": 3472,
        " turned</w>": 3473,
        " St": 3474,
        " bea": 3475,
        "day</w>": 3476,
        "ms</w>": 3477,
        "us</w>": 3478,
        "ost</w>": 3479,
        " wat": 3480,
        " another</w>": 3481,
        "ish</w>": 3482,
        "ious</w>": 3483,
        "ets</w>": 3484,
        "ise</w>": 3485,
        "ree</w>": 3486,
        " att": 3487,
        "ily</w>": 3488,
        " which</w>": 3489,
        " ever</w>": 3490,
        " with": 3491,
        "ually</w>": 3492,
        "og": 3493,
        " 2": 3494,
        " min": 3495,
        " those</w>": 3496,
        " because</w>": 3497,
        " saw</w>": 3498,
        "ment</w>": 3499,
        "te</w>": 3500,
        " started</w>": 3501,
        " new</w>": 3502,
        "ors</w>": 3503,
        " find</w>": 3504,
        " need</w>": 3505,
        "E</w>": 3506,
        "ness</w>": 3507,
        " asked</w>": 3508,
        "sh": 3509,
        "tic": 3510,
        " next</w>": 3511,
        " ph": 3512,
        ")</w>": 3513,
        " )</w>": 3514,
        " let</w>": 3515,
        " began</w>": 3516,
        " ru": 3517,
        " most</w>": 3518,
        " beh": 3519,
        " myself</w>": 3520,
        " \n \n W": 3521,
        " well</w>": 3522,
        " real": 3523,
        " \n \n He</w>": 3524,
        " things</w>": 3525,
        "owing</w>": 3526,
        " enough</w>": 3527,
        " His</w>": 3528,
        "anc": 3529,
        " own</w>": 3530,
        "ather</w>": 3531,
        " ent": 3532,
        " while</w>": 3533,
        " bel": 3534,
        " feel</w>": 3535,
        " went</w>": 3536,
        "ling</w>": 3537,
        " nothing</w>": 3538,
        " why</w>": 3539,
        "ee</w>": 3540,
        "ans</w>": 3541,
        "(</w>": 3542,
        " ga": 3543,
        " work</w>": 3544,
        " tal": 3545,
        "oul": 3546,
        "ond</w>": 3547,
        "ip</w>": 3548,
        "pr": 3549,
        " In</w>": 3550,
        " crea": 3551,
        " inter": 3552,
        "ary</w>": 3553,
        " found</w>": 3554,
        " Ch": 3555,
        " very</w>": 3556,
        "em</w>": 3557,
        " tra": 3558,
        " remem": 3559,
        "owed</w>": 3560,
        "ching</w>": 3561,
        "til</w>": 3562,
        " should</w>": 3563,
        " night</w>": 3564,
        " though</w>": 3565,
        " tell</w>": 3566,
        " light</w>": 3567,
        "bb": 3568,
        " body</w>": 3569,
        "ust": 3570,
        " acc": 3571,
        "di": 3572,
        " poin": 3573,
        "oon</w>": 3574,
        "een</w>": 3575,
        "med</w>": 3576,
        " behind</w>": 3577,
        "les</w>": 3578,
        " same</w>": 3579,
        "ows</w>": 3580,
        " So</w>": 3581,
        " As</w>": 3582,
        " sure</w>": 3583,
        "ince</w>": 3584,
        " \n ``</w>": 3585,
        "bo": 3586,
        "ept</w>": 3587,
        " pow": 3588,
        "ack": 3589,
        " small</w>": 3590,
        " hands</w>": 3591,
        " under": 3592,
        " once</w>": 3593,
        "ont</w>": 3594,
        "ire</w>": 3595,
        " ho": 3596,
        " bro": 3597,
        "ock</w>": 3598,
        "ns</w>": 3599,
        "ind": 3600,
        " ca</w>": 3601,
        "ange</w>": 3602,
        "iff": 3603,
        " stu": 3604,
        " comp": 3605,
        " home</w>": 3606,
        "ken</w>": 3607,
        " (</w>": 3608,
        "ped</w>": 3609,
        "ea</w>": 3610,
        " out": 3611,
        " ev": 3612,
        " many</w>": 3613,
        "I</w>": 3614,
        " these</w>": 3615,
        " anything</w>": 3616,
        " until</w>": 3617,
        "ead</w>": 3618,
        " place</w>": 3619,
        "i</w>": 3620,
        " or": 3621,
        " mat": 3622,
        " off": 3623,
        " each</w>": 3624,
        " If</w>": 3625,
        " moment</w>": 3626,
        "kes</w>": 3627,
        " end</w>": 3628,
        " hou": 3629,
        " clos": 3630,
        "ang": 3631,
        "ross</w>": 3632,
        "ast": 3633,
        " does</w>": 3634,
        "T</w>": 3635,
        "augh": 3636,
        " rel": 3637,
        " On": 3638,
        "ien": 3639,
        "reat</w>": 3640,
        " pas": 3641,
        " fam": 3642,
        " Go": 3643,
        " mind</w>": 3644,
        " fu": 3645,
        " heard</w>": 3646,
        " sn": 3647,
        " cor": 3648,
        "etting</w>": 3649,
        "ool</w>": 3650,
        " fac": 3651,
        " wom": 3652,
        " him": 3653,
        "iting</w>": 3654,
        "oke</w>": 3655,
        " sil": 3656,
        " looking</w>": 3657,
        " flo": 3658,
        " told</w>": 3659,
        "ently</w>": 3660,
        " so": 3661,
        "are</w>": 3662,
        "sing</w>": 3663,
        "dr": 3664,
        "all": 3665,
        " plan": 3666,
        "iled</w>": 3667,
        "ife</w>": 3668,
        "ner</w>": 3669,
        " up": 3670,
        " wanted</w>": 3671,
        "ple</w>": 3672,
        "ank</w>": 3673,
        " An": 3674,
        " himself</w>": 3675,
        " Al": 3676,
        " put</w>": 3677,
        " gir": 3678,
        " front</w>": 3679,
        " again": 3680,
        "eb": 3681,
        "iv": 3682,
        " name</w>": 3683,
        " fo": 3684,
        "ug": 3685,
        " bur": 3686,
        "ial</w>": 3687,
        " love</w>": 3688,
        " pre": 3689,
        "most</w>": 3690,
        " war": 3691,
        " \n \n M": 3692,
        " am": 3693,
        "illed</w>": 3694,
        " seemed</w>": 3695,
        " hun": 3696,
        " sim": 3697,
        " against</w>": 3698,
        " cur": 3699,
        "ical</w>": 3700,
        "orm": 3701,
        " diff": 3702,
        " side</w>": 3703,
        " Well</w>": 3704,
        " gi": 3705,
        " someone</w>": 3706,
        "ist</w>": 3707,
        "tr": 3708,
        " hop": 3709,
        "as</w>": 3710,
        " comm": 3711,
        " mis": 3712,
        " open</w>": 3713,
        " everything</w>": 3714,
        " across</w>": 3715,
        "pec": 3716,
        " ear": 3717,
        " towards</w>": 3718,
        "ake</w>": 3719,
        "ful</w>": 3720,
        " ste": 3721,
        " must</w>": 3722,
        " hear</w>": 3723,
        " How</w>": 3724,
        " ret": 3725,
        " \n \n B": 3726,
        " pos": 3727,
        "ease</w>": 3728,
        " stood</w>": 3729,
        " bar": 3730,
        " V": 3731,
        " tried</w>": 3732,
        "ith": 3733,
        " trying</w>": 3734,
        "ating</w>": 3735,
        " almost</w>": 3736,
        "owly</w>": 3737,
        " help</w>": 3738,
        " coun": 3739,
        "ening</w>": 3740,
        "used</w>": 3741,
        " inst": 3742,
        " walked</w>": 3743,
        "ot": 3744,
        " dra": 3745,
        " Oh</w>": 3746,
        " cour": 3747,
        "ering</w>": 3748,
        "par": 3749,
        "ph": 3750,
        "ses</w>": 3751,
        " words</w>": 3752,
        " contin": 3753,
        " since</w>": 3754,
        "tions</w>": 3755,
        " human</w>": 3756,
        " dri": 3757,
        "ping</w>": 3758,
        " minut": 3759,
        "S</w>": 3760,
        " cra": 3761,
        " remember</w>": 3762,
        " sen": 3763,
        " cons": 3764,
        " conf": 3765,
        "ild</w>": 3766,
        " exc": 3767,
        " compl": 3768,
        "ited</w>": 3769,
        " supp": 3770,
        "less</w>": 3771,
        " without</w>": 3772,
        " imp": 3773,
        " seen</w>": 3774,
        " wea": 3775,
        " screa": 3776,
        "est": 3777,
        " sat</w>": 3778,
        "att": 3779,
        "way</w>": 3780,
        "________": 3781,
        "uck": 3782,
        " better</w>": 3783,
        "ith</w>": 3784,
        " ser": 3785,
        "ole</w>": 3786,
        " finally</w>": 3787,
        "ement</w>": 3788,
        "ether</w>": 3789,
        " expl": 3790,
        " done</w>": 3791,
        "ably</w>": 3792,
        " black</w>": 3793,
        "ass</w>": 3794,
        "pping</w>": 3795,
        " Do</w>": 3796,
        " story</w>": 3797,
        "ord</w>": 3798,
        " id": 3799,
        " sit": 3800,
        "ming</w>": 3801,
        "e-": 3802,
        "ised</w>": 3803,
        " underst": 3804,
        "ously</w>": 3805,
        " mar": 3806,
        " wee": 3807,
        " person</w>": 3808,
        " keep</w>": 3809,
        "end</w>": 3810,
        " woman</w>": 3811,
        "ready</w>": 3812,
        " dead</w>": 3813,
        "ia</w>": 3814,
        "ized</w>": 3815,
        " youn": 3816,
        " hor": 3817,
        " lat": 3818,
        "ations</w>": 3819,
        "ig</w>": 3820,
        " ob": 3821,
        " ter": 3822,
        " ra": 3823,
        "ens</w>": 3824,
        "ained</w>": 3825,
        " stop</w>": 3826,
        " differ": 3827,
        " best</w>": 3828,
        " her": 3829,
        " bri": 3830,
        " God</w>": 3831,
        " air</w>": 3832,
        " death</w>": 3833,
        " slowly</w>": 3834,
        " Jo": 3835,
        " Why</w>": 3836,
        " already</w>": 3837,
        " far</w>": 3838,
        " days</w>": 3839,
        " ground</w>": 3840,
        " When</w>": 3841,
        " nee": 3842,
        " pic": 3843,
        " mean</w>": 3844,
        "lling</w>": 3845,
        "lls</w>": 3846,
        " inc": 3847,
        " give</w>": 3848,
        " foll": 3849,
        "sw": 3850,
        " house</w>": 3851,
        " everyone</w>": 3852,
        " else</w>": 3853,
        " bit</w>": 3854,
        "eat</w>": 3855,
        "reen</w>": 3856,
        "our</w>": 3857,
        " dro": 3858,
        " feel": 3859,
        "ough": 3860,
        " \n \n It</w>": 3861,
        " belie": 3862,
        "essed</w>": 3863,
        " yet</w>": 3864,
        "ture</w>": 3865,
        "thers</w>": 3866,
        " blood</w>": 3867,
        " lon": 3868,
        " under</w>": 3869,
        " dir": 3870,
        " three</w>": 3871,
        " both</w>": 3872,
        "ach": 3873,
        " ass": 3874,
        " smile</w>": 3875,
        " men</w>": 3876,
        " ago</w>": 3877,
        " In": 3878,
        " dark</w>": 3879,
        " inf": 3880,
        " Mar": 3881,
        " Sh": 3882,
        " floor</w>": 3883,
        " great</w>": 3884,
        "ided</w>": 3885,
        "tain</w>": 3886,
        "ru": 3887,
        " me": 3888,
        " dist": 3889,
        " girl</w>": 3890,
        "ike</w>": 3891,
        "ip": 3892,
        " Then</w>": 3893,
        " might</w>": 3894,
        "here</w>": 3895,
        " hal": 3896,
        " mor": 3897,
        " act": 3898,
        " Not</w>": 3899,
        " drea": 3900,
        " spec": 3901,
        " All</w>": 3902,
        "ward</w>": 3903,
        "anding</w>": 3904,
        "am</w>": 3905,
        "als</w>": 3906,
        "ately</w>": 3907,
        " doing</w>": 3908,
        " getting</w>": 3909,
        " mem": 3910,
        " red</w>": 3911,
        " mou": 3912,
        " used</w>": 3913,
        " hard</w>": 3914,
        " course</w>": 3915,
        " gone</w>": 3916,
        "so</w>": 3917,
        " wind": 3918,
        "iver": 3919,
        " happened</w>": 3920,
        " quick": 3921,
        " die</w>": 3922,
        "enly</w>": 3923,
        " ques": 3924,
        " least</w>": 3925,
        " call</w>": 3926,
        " year</w>": 3927,
        " fig": 3928,
        " 3": 3929,
        " sol": 3930,
        " past</w>": 3931,
        "inc": 3932,
        "ths</w>": 3933,
        " called</w>": 3934,
        " laugh": 3935,
        "ions</w>": 3936,
        " bed</w>": 3937,
        " lar": 3938,
        " such</w>": 3939,
        " inside</w>": 3940,
        " kind</w>": 3941,
        "ished</w>": 3942,
        "im</w>": 3943,
        "ant": 3944,
        " hair</w>": 3945,
        "eck</w>": 3946,
        " resp": 3947,
        " second</w>": 3948,
        "ze</w>": 3949,
        "ock": 3950,
        "umb": 3951,
        " all": 3952,
        " coll": 3953,
        "ual</w>": 3954,
        "its</w>": 3955,
        " car</w>": 3956,
        " sch": 3957,
        "eath</w>": 3958,
        " fing": 3959,
        " pulled</w>": 3960,
        " Now</w>": 3961,
        "ween</w>": 3962,
        " repl": 3963,
        "ours</w>": 3964,
        " sound</w>": 3965,
        " frien": 3966,
        " har": 3967,
        "eah</w>": 3968,
        " point</w>": 3969,
        "orry</w>": 3970,
        " gen": 3971,
        "ize</w>": 3972,
        "eared</w>": 3973,
        "D</w>": 3974,
        " gave</w>": 3975,
        " feet</w>": 3976,
        " def": 3977,
        " i</w>": 3978,
        " cha": 3979,
        "per</w>": 3980,
        " won": 3981,
        "5</w>": 3982,
        " coming</w>": 3983,
        "idd": 3984,
        " \n \n She</w>": 3985,
        " water</w>": 3986,
        " disc": 3987,
        " re": 3988,
        " inv": 3989,
        "tor</w>": 3990,
        "ime</w>": 3991,
        " One</w>": 3992,
        "um</w>": 3993,
        " power</w>": 3994,
        " imm": 3995,
        "ried</w>": 3996,
        " vis": 3997,
        "ss": 3998,
        " pi": 3999,
        " sy": 4000,
        " white</w>": 4001,
        " quickly</w>": 4002,
        " over": 4003,
        " answ": 4004,
        "ight": 4005,
        " between</w>": 4006,
        "tur": 4007,
        "inking</w>": 4008,
        " family</w>": 4009,
        "ging</w>": 4010,
        " m</w>": 4011,
        " si": 4012,
        " different</w>": 4013,
        " char": 4014,
        " mother</w>": 4015,
        "…</w>": 4016,
        "ove</w>": 4017,
        " stopped</w>": 4018,
        " live</w>": 4019,
        "ddenly</w>": 4020,
        " leave</w>": 4021,
        "to</w>": 4022,
        " young</w>": 4023,
        " father</w>": 4024,
        "**": 4025,
        " spea": 4026,
        "esc": 4027,
        " perf": 4028,
        " phone</w>": 4029,
        "00": 4030,
        " forg": 4031,
        " buil": 4032,
        " heart</w>": 4033,
        " try</w>": 4034,
        " boy</w>": 4035,
        "ued</w>": 4036,
        " sig": 4037,
        " times</w>": 4038,
        " kill</w>": 4039,
        "ion": 4040,
        "ins</w>": 4041,
        " Just</w>": 4042,
        " Her</w>": 4043,
        " Yes</w>": 4044,
        "ection</w>": 4045,
        " pret": 4046,
        " opened</w>": 4047,
        " Ear": 4048,
        " tog": 4049,
        " set</w>": 4050,
        " ins": 4051,
        "hing</w>": 4052,
        " minutes</w>": 4053,
        " hell</w>": 4054,
        "olog": 4055,
        "act</w>": 4056,
        " dev": 4057,
        " Un": 4058,
        "ared</w>": 4059,
        " bad</w>": 4060,
        "sion</w>": 4061,
        " dam": 4062,
        "vi": 4063,
        "ould": 4064,
        " it": 4065,
        " turn</w>": 4066,
        " job</w>": 4067,
        " lost</w>": 4068,
        "ames</w>": 4069,
        " together</w>": 4070,
        " col": 4071,
        "ates</w>": 4072,
        " real</w>": 4073,
        " ref": 4074,
        "ully</w>": 4075,
        " soon</w>": 4076,
        " After</w>": 4077,
        "ired</w>": 4078,
        " \n \n O": 4079,
        " fi": 4080,
        "ucking</w>": 4081,
        " table</w>": 4082,
        " rest</w>": 4083,
        " outside</w>": 4084,
        "ined</w>": 4085,
        " run": 4086,
        " later</w>": 4087,
        "pt</w>": 4088,
        " fell</w>": 4089,
        " actually</w>": 4090,
        "ushed</w>": 4091,
        "ster</w>": 4092,
        " mouth</w>": 4093,
        "very": 4094,
        " able</w>": 4095,
        "utt": 4096,
        " te": 4097,
        " whole</w>": 4098,
        "aced</w>": 4099,
        " part</w>": 4100,
        "ny</w>": 4101,
        " vi": 4102,
        " ligh": 4103,
        " chil": 4104,
        "orn</w>": 4105,
        " complet": 4106,
        " start</w>": 4107,
        "bably</w>": 4108,
        "ition</w>": 4109,
        " retur": 4110,
        " may": 4111,
        "gr": 4112,
        "vered</w>": 4113,
        " cou": 4114,
        " Fr": 4115,
        " cold</w>": 4116,
        "ud": 4117,
        " met": 4118,
        " squ": 4119,
        " hol": 4120,
        "iend</w>": 4121,
        "ches</w>": 4122,
        " sing": 4123,
        " pain</w>": 4124,
        "dly</w>": 4125,
        " reg": 4126,
        " guy</w>": 4127,
        " conc": 4128,
        "oud</w>": 4129,
        " today</w>": 4130,
        " lot</w>": 4131,
        " \n \n A</w>": 4132,
        "ories</w>": 4133,
        " friend</w>": 4134,
        " sub": 4135,
        " hours</w>": 4136,
        " friends</w>": 4137,
        " held</w>": 4138,
        " wrong</w>": 4139,
        " also</w>": 4140,
        "ast</w>": 4141,
        " ran</w>": 4142,
        " Earth</w>": 4143,
        "sible</w>": 4144,
        "enc": 4145,
        " pres": 4146,
        "ery</w>": 4147,
        " read</w>": 4148,
        " big</w>": 4149,
        " beaut": 4150,
        " use</w>": 4151,
        " fire</w>": 4152,
        " deep</w>": 4153,
        "early</w>": 4154,
        " child</w>": 4155,
        " says</w>": 4156,
        " dem": 4157,
        "iling</w>": 4158,
        " smiled</w>": 4159,
        "ither</w>": 4160,
        "tive</w>": 4161,
        " hur": 4162,
        "ected</w>": 4163,
        " loc": 4164,
        " foo": 4165,
        " onto</w>": 4166,
        " close</w>": 4167,
        "ans": 4168,
        " believe</w>": 4169,
        " mag": 4170,
        " anyone</w>": 4171,
        " upon</w>": 4172,
        " play": 4173,
        "ident</w>": 4174,
        "ands</w>": 4175,
        "ls</w>": 4176,
        " we": 4177,
        " understand</w>": 4178,
        "ird</w>": 4179,
        " alone</w>": 4180,
        "yp": 4181,
        "earing</w>": 4182,
        " maybe</w>": 4183,
        "op</w>": 4184,
        " pur": 4185,
        "aybe</w>": 4186,
        "body</w>": 4187,
        " hit</w>": 4188,
        "r.</w>": 4189,
        " us": 4190,
        " Pl": 4191,
        "ror</w>": 4192,
        "ker</w>": 4193,
        "ff</w>": 4194,
        " For</w>": 4195,
        " morning</w>": 4196,
        " Som": 4197,
        " may</w>": 4198,
        " move</w>": 4199,
        " leg": 4200,
        " matter</w>": 4201,
        " pol": 4202,
        "ically</w>": 4203,
        "my</w>": 4204,
        " not": 4205,
        " prom": 4206,
        " det": 4207,
        " wall</w>": 4208,
        " ask</w>": 4209,
        "app": 4210,
        " your": 4211,
        " shit</w>": 4212,
        " tea": 4213,
        "yed</w>": 4214,
        " emp": 4215,
        "ood": 4216,
        "nt</w>": 4217,
        "**</w>": 4218,
        " Joh": 4219,
        " \n</w>": 4220,
        " breath</w>": 4221,
        "bbed</w>": 4222,
        " whis": 4223,
        " large</w>": 4224,
        "N</w>": 4225,
        " pat": 4226,
        " others</w>": 4227,
        "ains</w>": 4228,
        " ang": 4229,
        " making</w>": 4230,
        " run</w>": 4231,
        " window</w>": 4232,
        " qui": 4233,
        " probably</w>": 4234,
        " needed</w>": 4235,
        " stre": 4236,
        " full</w>": 4237,
        "ured</w>": 4238,
        " did": 4239,
        " \n \n N": 4240,
        " wife</w>": 4241,
        "owever</w>": 4242,
        "ade</w>": 4243,
        " quite</w>": 4244,
        " arms</w>": 4245,
        " new": 4246,
        " become</w>": 4247,
        " rev": 4248,
        " \n \n F": 4249,
        "az": 4250,
        "&</w>": 4251,
        "ft</w>": 4252,
        " city</w>": 4253,
        "aught</w>": 4254,
        "ech": 4255,
        " reached</w>": 4256,
        " looks</w>": 4257,
        " kept</w>": 4258,
        " Your</w>": 4259,
        " af": 4260,
        " \n \n D": 4261,
        " \n \n J": 4262,
        " feeling</w>": 4263,
        " don</w>": 4264,
        " planet</w>": 4265,
        "dren</w>": 4266,
        " notic": 4267,
        " exp": 4268,
        "ush</w>": 4269,
        " yell": 4270,
        " longer</w>": 4271,
        " respon": 4272,
        "ply</w>": 4273,
        "ach</w>": 4274,
        "kay</w>": 4275,
        " \n \n And</w>": 4276,
        " oc": 4277,
        " tru": 4278,
        " decided</w>": 4279,
        " fucking</w>": 4280,
        " fear</w>": 4281,
        " cap": 4282,
        " war</w>": 4283,
        " ba": 4284,
        " school</w>": 4285,
        "iful</w>": 4286,
        " talk</w>": 4287,
        " appro": 4288,
        "ipped</w>": 4289,
        "osed</w>": 4290,
        " \n \n T": 4291,
        " \n \n Wh": 4292,
        " hope</w>": 4293,
        " No": 4294,
        " Maybe</w>": 4295,
        "ids</w>": 4296,
        "O</w>": 4297,
        " At</w>": 4298,
        "ingly</w>": 4299,
        "R</w>": 4300,
        " idea</w>": 4301,
        "man</w>": 4302,
        " stra": 4303,
        " along</w>": 4304,
        "ists</w>": 4305,
        " lear": 4306,
        " walk</w>": 4307,
        " fur": 4308,
        "ility</w>": 4309,
        " pretty</w>": 4310,
        "sp</w>": 4311,
        " sorry</w>": 4312,
        "ean</w>": 4313,
        " Every": 4314,
        "selves</w>": 4315,
        "ong": 4316,
        "tro": 4317,
        " died</w>": 4318,
        "ines</w>": 4319,
        " pap": 4320,
        " humans</w>": 4321,
        "aw": 4322,
        " soun": 4323,
        " didn</w>": 4324,
        "bs</w>": 4325,
        " stared</w>": 4326,
        "edi": 4327,
        " eye</w>": 4328,
        " cal": 4329,
        "end": 4330,
        "ention</w>": 4331,
        " blue</w>": 4332,
        " exper": 4333,
        " Pr": 4334,
        "eed</w>": 4335,
        " guess</w>": 4336,
        "The</w>": 4337,
        " became</w>": 4338,
        " pan": 4339,
        "eh": 4340,
        " having</w>": 4341,
        "els</w>": 4342,
        " continued</w>": 4343,
        " watched</w>": 4344,
        " care</w>": 4345,
        "av": 4346,
        "ities</w>": 4347,
        " sou": 4348,
        " contro": 4349,
        "irs</w>": 4350,
        " cat": 4351,
        " half</w>": 4352,
        "iness</w>": 4353,
        "ced</w>": 4354,
        " doc": 4355,
        " imag": 4356,
        " forward</w>": 4357,
        "atever</w>": 4358,
        " top</w>": 4359,
        "sy</w>": 4360,
        "uring</w>": 4361,
        " sky</w>": 4362,
        "imes</w>": 4363,
        " living</w>": 4364,
        "4</w>": 4365,
        "ex": 4366,
        " taking</w>": 4367,
        " arm</w>": 4368,
        " single</w>": 4369,
        "A</w>": 4370,
        " children</w>": 4371,
        " d</w>": 4372,
        " entire</w>": 4373,
        " Yeah</w>": 4374,
        " high</w>": 4375,
        "ape</w>": 4376,
        "ave</w>": 4377,
        "ters</w>": 4378,
        " trans": 4379,
        " piec": 4380,
        "aps</w>": 4381,
        "ah</w>": 4382,
        " boo": 4383,
        "illing</w>": 4384,
        " watch</w>": 4385,
        "os</w>": 4386,
        "row</w>": 4387,
        "tion": 4388,
        " prot": 4389,
        " chair</w>": 4390,
        " bas": 4391,
        "aining</w>": 4392,
        " \n \n E": 4393,
        " see": 4394,
        " adv": 4395,
        "tern": 4396,
        "Y</w>": 4397,
        " hu": 4398,
        " re</w>": 4399,
        " ind": 4400,
        " ready</w>": 4401,
        " Am": 4402,
        " hand": 4403,
        " del": 4404,
        " above</w>": 4405,
        " sun</w>": 4406,
        " taken</w>": 4407,
        " cer": 4408,
        " TH": 4409,
        " With</w>": 4410,
        " surpr": 4411,
        " running</w>": 4412,
        " suddenly</w>": 4413,
        " sitting</w>": 4414,
        "com": 4415,
        " eff": 4416,
        " waiting</w>": 4417,
        "anity</w>": 4418,
        " word</w>": 4419,
        "ish": 4420,
        "ian</w>": 4421,
        " beautiful</w>": 4422,
        " dep": 4423,
        "ored</w>": 4424,
        " gun</w>": 4425,
        " moved</w>": 4426,
        " passed</w>": 4427,
        " jum": 4428,
        "ci": 4429,
        "OU": 4430,
        " show</w>": 4431,
        " talking</w>": 4432,
        " mus": 4433,
        " sleep</w>": 4434,
        " pea": 4435,
        " nod": 4436,
        "dered</w>": 4437,
        "ou</w>": 4438,
        " money</w>": 4439,
        " change</w>": 4440,
        " skin</w>": 4441,
        " list": 4442,
        " ed": 4443,
        "01": 4444,
        " killed</w>": 4445,
        " spoke</w>": 4446,
        " space</w>": 4447,
        " dark": 4448,
        " bus": 4449,
        " figure</w>": 4450,
        "ones</w>": 4451,
        " \n I</w>": 4452,
        " clo": 4453,
        " fact</w>": 4454,
        " \n \n \n ``</w>": 4455,
        "aged</w>": 4456,
        " heav": 4457,
        " sel": 4458,
        " brought</w>": 4459,
        " num": 4460,
        " proc": 4461,
        " line</w>": 4462,
        " fuck</w>": 4463,
        " reason</w>": 4464,
        " them": 4465,
        " To</w>": 4466,
        "ightly</w>": 4467,
        "erg": 4468,
        " standing</w>": 4469,
        "more</w>": 4470,
        "icked</w>": 4471,
        "eng": 4472,
        " mach": 4473,
        " \n \n As</w>": 4474,
        "ides</w>": 4475,
        " months</w>": 4476,
        " \n \n But</w>": 4477,
        "e.</w>": 4478,
        " tou": 4479,
        " cam": 4480,
        " parents</w>": 4481,
        " happy</w>": 4482,
        "bsp</w>": 4483,
        " sense</w>": 4484,
        " chest</w>": 4485,
        " nbsp</w>": 4486,
        "ator</w>": 4487,
        " \n \n My</w>": 4488,
        "antly</w>": 4489,
        "ten</w>": 4490,
        " fut": 4491,
        " ship</w>": 4492,
        " sigh": 4493,
        " trav": 4494,
        "tures</w>": 4495,
        " son</w>": 4496,
        " mess": 4497,
        " was": 4498,
        " back": 4499,
        "gn": 4500,
        "tten</w>": 4501,
        " noticed</w>": 4502,
        "acked</w>": 4503,
        " replied</w>": 4504,
        " hon": 4505,
        " ben": 4506,
        " silence</w>": 4507,
        " fun": 4508,
        "ower</w>": 4509,
        " mil": 4510,
        "br": 4511,
        " bott": 4512,
        " wish</w>": 4513,
        " within</w>": 4514,
        " filled</w>": 4515,
        " saf": 4516,
        "y-": 4517,
        " food</w>": 4518,
        "mer</w>": 4519,
        "ety</w>": 4520,
        " norm": 4521,
        " Is</w>": 4522,
        " bir": 4523,
        " shot</w>": 4524,
        " fight</w>": 4525,
        " \n \n C": 4526,
        " true</w>": 4527,
        " thous": 4528,
        " Cl": 4529,
        " flas": 4530,
        "oes</w>": 4531,
        "ane</w>": 4532,
        "anged</w>": 4533,
        " nodded</w>": 4534,
        " univer": 4535,
        " probl": 4536,
        " week</w>": 4537,
        " pers": 4538,
        " glass</w>": 4539,
        "right</w>": 4540,
        " cu": 4541,
        " Ar": 4542,
        "ber": 4543,
        "ich": 4544,
        "elling</w>": 4545,
        " gre": 4546,
        " apar": 4547,
        " met</w>": 4548,
        "room</w>": 4549,
        " anymore</w>": 4550,
        " thinking</w>": 4551,
        " drag": 4552,
        "tment</w>": 4553,
        "irc": 4554,
        "red</w>": 4555,
        "zy</w>": 4556,
        " strange</w>": 4557,
        " known</w>": 4558,
        "eld</w>": 4559,
        "onds</w>": 4560,
        " question</w>": 4561,
        "inning</w>": 4562,
        " tears</w>": 4563,
        " weap": 4564,
        "rif": 4565,
        "haps</w>": 4566,
        " crow": 4567,
        " realized</w>": 4568,
        "ony</w>": 4569,
        " esc": 4570,
        "ank": 4571,
        " Su": 4572,
        " closed</w>": 4573,
        " ve</w>": 4574,
        " corner</w>": 4575,
        " given</w>": 4576,
        "sc": 4577,
        " count": 4578,
        " disapp": 4579,
        " less</w>": 4580,
        " Who</w>": 4581,
        "itch</w>": 4582,
        " John</w>": 4583,
        " short</w>": 4584,
        " cho": 4585,
        "6</w>": 4586,
        " shou": 4587,
        "orm</w>": 4588,
        "ular</w>": 4589,
        "anced</w>": 4590,
        "eth</w>": 4591,
        " itself</w>": 4592,
        " free</w>": 4593,
        "bly</w>": 4594,
        " walking</w>": 4595,
        " caught</w>": 4596,
        " wo</w>": 4597,
        " empty</w>": 4598,
        "jo": 4599,
        " late</w>": 4600,
        " na</w>": 4601,
        " fingers</w>": 4602,
        " coff": 4603,
        " cut</w>": 4604,
        "iddle</w>": 4605,
        " though": 4606,
        " sta": 4607,
        " either</w>": 4608,
        " god</w>": 4609,
        "etimes</w>": 4610,
        " arri": 4611,
        "ope</w>": 4612,
        "eful</w>": 4613,
        " sha": 4614,
        " super": 4615,
        " syst": 4616,
        " watching</w>": 4617,
        " ext": 4618,
        "00</w>": 4619,
        "str": 4620,
        " yourself</w>": 4621,
        "ocked</w>": 4622,
        "any</w>": 4623,
        " earth</w>": 4624,
        " wait</w>": 4625,
        "actly</w>": 4626,
        " expec": 4627,
        " batt": 4628,
        " staring</w>": 4629,
        "ugg": 4630,
        " fall</w>": 4631,
        "2</w>": 4632,
        " kid</w>": 4633,
        " **</w>": 4634,
        " z": 4635,
        " answer</w>": 4636,
        " game</w>": 4637,
        " disco": 4638,
        "ass": 4639,
        "veral</w>": 4640,
        "erv": 4641,
        " simply</w>": 4642,
        "fort": 4643,
        " Ro": 4644,
        " mur": 4645,
        "ili": 4646,
        " themselves</w>": 4647,
        " grou": 4648,
        " attem": 4649,
        "tiv": 4650,
        " happen</w>": 4651,
        "ouldn</w>": 4652,
        "________________": 4653,
        " stand</w>": 4654,
        "ett": 4655,
        " speak</w>": 4656,
        "oulder</w>": 4657,
        " \n \n L": 4658,
        " closer</w>": 4659,
        "ics</w>": 4660,
        "ils</w>": 4661,
        " suc": 4662,
        "anks</w>": 4663,
        "ession</w>": 4664,
        " mov": 4665,
        " nice</w>": 4666,
        " hold</w>": 4667,
        "ation": 4668,
        " Bl": 4669,
        " grabbed</w>": 4670,
        "IN": 4671,
        "ject</w>": 4672,
        " seems</w>": 4673,
        " future</w>": 4674,
        "ister</w>": 4675,
        " whatever</w>": 4676,
        " control</w>": 4677,
        " gener": 4678,
        " sent</w>": 4679,
        " building</w>": 4680,
        " shook</w>": 4681,
        "7</w>": 4682,
        "ther": 4683,
        "></w>": 4684,
        " Wr": 4685,
        " five</w>": 4686,
        " soul</w>": 4687,
        " book</w>": 4688,
        " instead</w>": 4689,
        "iding</w>": 4690,
        " sort</w>": 4691,
        " loved</w>": 4692,
        " desk</w>": 4693,
        " \n \n Y": 4694,
        "esh</w>": 4695,
        " &</w>": 4696,
        " surv": 4697,
        " street</w>": 4698,
        " Hey</w>": 4699,
        "unch</w>": 4700,
        " office</w>": 4701,
        " gri": 4702,
        "eal</w>": 4703,
        "gg": 4704,
        " town</w>": 4705,
        " ones</w>": 4706,
        "un</w>": 4707,
        " opp": 4708,
        " please</w>": 4709,
        " \n \n --</w>": 4710,
        "ang</w>": 4711,
        " stay</w>": 4712,
        " pain": 4713,
        " chance</w>": 4714,
        "1</w>": 4715,
        "duc": 4716,
        " seem</w>": 4717,
        " step</w>": 4718,
        " lives</w>": 4719,
        "bling</w>": 4720,
        " green</w>": 4721,
        " screen</w>": 4722,
        " Are</w>": 4723,
        " thro": 4724,
        " working</w>": 4725,
        " Even</w>": 4726,
        " shoulder</w>": 4727,
        " number</w>": 4728,
        "ail</w>": 4729,
        "ders</w>": 4730,
        "eeping</w>": 4731,
        " Mr.</w>": 4732,
        " nat": 4733,
        "ended</w>": 4734,
        " completely</w>": 4735,
        "ense</w>": 4736,
        " holding</w>": 4737,
        " immedi": 4738,
        "iny</w>": 4739,
        " followed</w>": 4740,
        " darkness</w>": 4741,
        " exactly</w>": 4742,
        " du": 4743,
        " rather</w>": 4744,
        " seconds</w>": 4745,
        "ys": 4746,
        " coffee</w>": 4747,
        " Some": 4748,
        " sci": 4749,
        " makes</w>": 4750,
        " mir": 4751,
        " meant</w>": 4752,
        " surr": 4753,
        " saying</w>": 4754,
        "ices</w>": 4755,
        " stepped</w>": 4756,
        " bring</w>": 4757,
        " alive</w>": 4758,
        " form</w>": 4759,
        "echn": 4760,
        "iously</w>": 4761,
        " couple</w>": 4762,
        "bed</w>": 4763,
        "den</w>": 4764,
        " mill": 4765,
        " comes</w>": 4766,
        " sir</w>": 4767,
        " middle</w>": 4768,
        " occ": 4769,
        "adi": 4770,
        " scr": 4771,
        " barely</w>": 4772,
        "li": 4773,
        " eng": 4774,
        " thoughts</w>": 4775,
        " kids</w>": 4776,
        "itch": 4777,
        " supposed</w>": 4778,
        "kn": 4779,
        " destro": 4780,
        " Some</w>": 4781,
        " perfect</w>": 4782,
        "8</w>": 4783,
        "unk</w>": 4784,
        "ages</w>": 4785,
        "ips</w>": 4786,
        "ult</w>": 4787,
        " picked</w>": 4788,
        " er": 4789,
        " play</w>": 4790,
        " fine</w>": 4791,
        "oss</w>": 4792,
        " save</w>": 4793,
        "ret</w>": 4794,
        " pock": 4795,
        " ll</w>": 4796,
        " paper</w>": 4797,
        " sighed</w>": 4798,
        " high": 4799,
        " shad": 4800,
        " ann": 4801,
        "e*</w>": 4802,
        "old</w>": 4803,
        " En": 4804,
        "eps</w>": 4805,
        "ectly</w>": 4806,
        " bab": 4807,
        "zz": 4808,
        " laughed</w>": 4809,
        " Or</w>": 4810,
        " Bo": 4811,
        " /": 4812,
        " lim": 4813,
        " age</w>": 4814,
        " Please</w>": 4815,
        " meet</w>": 4816,
        "M</w>": 4817,
        " several</w>": 4818,
        " four</w>": 4819,
        " soc": 4820,
        " lips</w>": 4821,
        " clear</w>": 4822,
        " metal</w>": 4823,
        "efully</w>": 4824,
        "eet</w>": 4825,
        " consid": 4826,
        " grew</w>": 4827,
        " grea": 4828,
        " Of</w>": 4829,
        " av": 4830,
        " dou": 4831,
        " mine</w>": 4832,
        " \n \n **": 4833,
        "uter</w>": 4834,
        " attention</w>": 4835,
        " Let</w>": 4836,
        " broken</w>": 4837,
        " Where</w>": 4838,
        " shar": 4839,
        "G</w>": 4840,
        "L</w>": 4841,
        "entually</w>": 4842,
        " universe</w>": 4843,
        " To": 4844,
        " slightly</w>": 4845,
        "ift</w>": 4846,
        "ital</w>": 4847,
        " sit</w>": 4848,
        " legs</w>": 4849,
        " final</w>": 4850,
        " desc": 4851,
        " import": 4852,
        "ights</w>": 4853,
        "int</w>": 4854,
        "isted</w>": 4855,
        " rememb": 4856,
        "ars</w>": 4857,
        " possible</w>": 4858,
        " moving</w>": 4859,
        " seat</w>": 4860,
        " stup": 4861,
        "uff": 4862,
        " break</w>": 4863,
        "ested</w>": 4864,
        " \n \n We</w>": 4865,
        " normal</w>": 4866,
        " box</w>": 4867,
        " fav": 4868,
        " Every</w>": 4869,
        " near</w>": 4870,
        "pted</w>": 4871,
        " conv": 4872,
        " bull": 4873,
        " appeared</w>": 4874,
        " dream</w>": 4875,
        "eric": 4876,
        "sh</w>": 4877,
        " Br": 4878,
        "ief</w>": 4879,
        " bright</w>": 4880,
        " group</w>": 4881,
        " raised</w>": 4882,
        " Ex": 4883,
        " pri": 4884,
        "‘</w>": 4885,
        " \n \n P": 4886,
        " neck</w>": 4887,
        " stud": 4888,
        " leaving</w>": 4889,
        " enjo": 4890,
        " piece</w>": 4891,
        " circ": 4892,
        " hist": 4893,
        "oned</w>": 4894,
        "vern": 4895,
        "ne</w>": 4896,
        " \n \n G": 4897,
        " crowd</w>": 4898,
        "erm": 4899,
        "ute</w>": 4900,
        " whisp": 4901,
        " plea": 4902,
        " sent": 4903,
        "head</w>": 4904,
        " Con": 4905,
        "la": 4906,
        " hour</w>": 4907,
        " YOU": 4908,
        " \n “</w>": 4909,
        " \n \n</w>": 4910,
        " wake</w>": 4911,
        "ills</w>": 4912,
        " knows</w>": 4913,
        " techn": 4914,
        " ign": 4915,
        " cro": 4916,
        " worked</w>": 4917,
        "aying</w>": 4918,
        " herself</w>": 4919,
        " hurt</w>": 4920,
        " immediately</w>": 4921,
        " nearly</w>": 4922,
        " case</w>": 4923,
        "ination</w>": 4924,
        "erc": 4925,
        " somew": 4926,
        " Z": 4927,
        " quiet</w>": 4928,
        " di": 4929,
        "rible</w>": 4930,
        " changed</w>": 4931,
        " brother</w>": 4932,
        "ants</w>": 4933,
        "ex</w>": 4934,
        "ision</w>": 4935,
        " abs": 4936,
        " writing</w>": 4937,
        " lights</w>": 4938,
        " simple</w>": 4939,
        " gon</w>": 4940,
        " order</w>": 4941,
        "ounded</w>": 4942,
        "ems</w>": 4943,
        " shut</w>": 4944,
        " Death</w>": 4945,
        " [</w>": 4946,
        " begin</w>": 4947,
        " lived</w>": 4948,
        " dropped</w>": 4949,
        " news</w>": 4950,
        "ially</w>": 4951,
        " unc": 4952,
        " Tw": 4953,
        "ky</w>": 4954,
        " Did</w>": 4955,
        "anded</w>": 4956,
        "iss</w>": 4957,
        " humanity</w>": 4958,
        " cas": 4959,
        " \n \n They</w>": 4960,
        " notice</w>": 4961,
        " spent</w>": 4962,
        " vill": 4963,
        " cent": 4964,
        " toward</w>": 4965,
        " sea": 4966,
        "eting</w>": 4967,
        " guys</w>": 4968,
        "ending</w>": 4969,
        " system</w>": 4970,
        "umbled</w>": 4971,
        "ising</w>": 4972,
        "aces</w>": 4973,
        " 5": 4974,
        "acks</w>": 4975,
        " ol": 4976,
        "ra</w>": 4977,
        " weeks</w>": 4978,
        "K</w>": 4979,
        "ality</w>": 4980,
        "sted</w>": 4981,
        "aughter</w>": 4982,
        " fast</w>": 4983,
        " walls</w>": 4984,
        " covered</w>": 4985,
        "ale</w>": 4986,
        "ork</w>": 4987,
        " throat</w>": 4988,
        " Write</w>": 4989,
        " problem</w>": 4990,
        " Gr": 4991,
        " Americ": 4992,
        " ap": 4993,
        "eer</w>": 4994,
        " anim": 4995,
        "aul": 4996,
        " goes</w>": 4997,
        " machine</w>": 4998,
        "eless</w>": 4999,
        "ison</w>": 5000,
        "ached</w>": 5001,
        "wh": 5002,
        "ount</w>": 5003,
        "–</w>": 5004,
        " lay</w>": 5005,
        " sun": 5006,
        " An</w>": 5007,
        " **": 5008,
        "u</w>": 5009,
        " seeing</w>": 5010,
        " butt": 5011,
        "dred</w>": 5012,
        "ler</w>": 5013,
        " radi": 5014,
        "ens": 5015,
        "3</w>": 5016,
        " easy</w>": 5017,
        " \n \n There</w>": 5018,
        " offic": 5019,
        " loud</w>": 5020,
        " 4": 5021,
        "vers": 5022,
        " arm": 5023,
        " gets</w>": 5024,
        " rece": 5025,
        " damn</w>": 5026,
        " let": 5027,
        " \n \n R": 5028,
        " yes</w>": 5029,
        " 2</w>": 5030,
        " ir": 5031,
        "own": 5032,
        " sear": 5033,
        "art</w>": 5034,
        "ific": 5035,
        " succ": 5036,
        "oring</w>": 5037,
        "ol</w>": 5038,
        "gs</w>": 5039,
        "f-": 5040,
        "enty</w>": 5041,
        " wind</w>": 5042,
        "gl": 5043,
        " \n The</w>": 5044,
        " okay</w>": 5045,
        " vic": 5046,
        "where</w>": 5047,
        " however</w>": 5048,
        " Q": 5049,
        " foc": 5050,
        "efore</w>": 5051,
        " straight</w>": 5052,
        "ann": 5053,
        " \n \n '": 5054,
        "itting</w>": 5055,
        "ells</w>": 5056,
        "uation</w>": 5057,
        " land</w>": 5058,
        " Har": 5059,
        "ining</w>": 5060,
        "orts</w>": 5061,
        " during</w>": 5062,
        " born</w>": 5063,
        "rac": 5064,
        "dering</w>": 5065,
        "ues</w>": 5066,
        "s.</w>": 5067,
        " ri": 5068,
        " Like</w>": 5069,
        " reach</w>": 5070,
        "iliar</w>": 5071,
        " pushed</w>": 5072,
        " drink</w>": 5073,
        " med": 5074,
        " write</w>": 5075,
        " managed</w>": 5076,
        " 3</w>": 5077,
        " brain</w>": 5078,
        " soldi": 5079,
        "9</w>": 5080,
        " charac": 5081,
        "ax": 5082,
        " –</w>": 5083,
        " silent</w>": 5084,
        " spl": 5085,
        "ops</w>": 5086,
        " pull</w>": 5087,
        " au": 5088,
        " wasn</w>": 5089,
        "ushing</w>": 5090,
        "ark</w>": 5091,
        "ung</w>": 5092,
        "ien</w>": 5093,
        " suit</w>": 5094,
        "inging</w>": 5095,
        "yond</w>": 5096,
        " realize</w>": 5097,
        " smell</w>": 5098,
        " sho": 5099,
        "igg": 5100,
        "wards</w>": 5101,
        " quick</w>": 5102,
        " stupid</w>": 5103,
        "eople</w>": 5104,
        "sure</w>": 5105,
        "lu": 5106,
        "owl": 5107,
        " cla": 5108,
        "ayed</w>": 5109,
        " screamed</w>": 5110,
        " stuff</w>": 5111,
        " lev": 5112,
        " return</w>": 5113,
        " bes": 5114,
        "iles</w>": 5115,
        " heavy</w>": 5116,
        " force</w>": 5117,
        " ten</w>": 5118,
        "ology</w>": 5119,
        " typ": 5120,
        "emy</w>": 5121,
        "imed</w>": 5122,
        "dies</w>": 5123,
        "esting</w>": 5124,
        " teeth</w>": 5125,
        " partic": 5126,
        " computer</w>": 5127,
        " magic</w>": 5128,
        " easi": 5129,
        " tem": 5130,
        " sna": 5131,
        " kitch": 5132,
        " sword</w>": 5133,
        " hundred</w>": 5134,
        "lo": 5135,
        " stom": 5136,
        "augh</w>": 5137,
        "ible</w>": 5138,
        " deser": 5139,
        " stat": 5140,
        " Per": 5141,
        "eir</w>": 5142,
        " chec": 5143,
        " mist": 5144,
        "rees</w>": 5145,
        "ste</w>": 5146,
        " stea": 5147,
        " bar</w>": 5148,
        " is": 5149,
        " message</w>": 5150,
        " knife</w>": 5151,
        " govern": 5152,
        " broke</w>": 5153,
        " lab": 5154,
        " person": 5155,
        " Pro": 5156,
        " Ad": 5157,
        "ces</w>": 5158,
        "ship</w>": 5159,
        "tain": 5160,
        " anyway</w>": 5161,
        "ug</w>": 5162,
        " warm</w>": 5163,
        " Sp": 5164,
        " laugh</w>": 5165,
        "ogn": 5166,
        " aff": 5167,
        " takes</w>": 5168,
        " strugg": 5169,
        "rig": 5170,
        " Hum": 5171,
        " dad</w>": 5172,
        "ented</w>": 5173,
        "edge</w>": 5174,
        " kitchen</w>": 5175,
        "ortal</w>": 5176,
        " check</w>": 5177,
        " strong</w>": 5178,
        " deal</w>": 5179,
        "irt</w>": 5180,
        " stri": 5181,
        " plan</w>": 5182,
        " requ": 5183,
        " important</w>": 5184,
        "how</w>": 5185,
        "ER": 5186,
        " adm": 5187,
        " pun": 5188,
        " spr": 5189,
        "read</w>": 5190,
        " edge</w>": 5191,
        " sight</w>": 5192,
        "ees</w>": 5193,
        " distance</w>": 5194,
        " On</w>": 5195,
        "fully</w>": 5196,
        " shouted</w>": 5197,
        " history</w>": 5198,
        " emo": 5199,
        "by</w>": 5200,
        " road</w>": 5201,
        " Com": 5202,
        " Em": 5203,
        " stories</w>": 5204,
        " tree</w>": 5205,
        "sp": 5206,
        "orrow</w>": 5207,
        " pocket</w>": 5208,
        "ries</w>": 5209,
        " below</w>": 5210,
        "ello</w>": 5211,
        "ene</w>": 5212,
        "raid</w>": 5213,
        "eled</w>": 5214,
        " beyond</w>": 5215,
        " using</w>": 5216,
        " dog</w>": 5217,
        "ey": 5218,
        " placed</w>": 5219,
        " sum": 5220,
        "ength</w>": 5221,
        " Everyone</w>": 5222,
        "ink": 5223,
        " playing</w>": 5224,
        "ak": 5225,
        " waited</w>": 5226,
        " turning</w>": 5227,
        " fro": 5228,
        " hate</w>": 5229,
        " sign": 5230,
        " eat</w>": 5231,
        " near": 5232,
        " grand": 5233,
        " commun": 5234,
        " sounds</w>": 5235,
        " fun</w>": 5236,
        " bag</w>": 5237,
        "edly</w>": 5238,
        "sts</w>": 5239,
        " suff": 5240,
        " mom</w>": 5241,
        " doors</w>": 5242,
        "oid</w>": 5243,
        "utting</w>": 5244,
        " Nothing</w>": 5245,
        "ugged</w>": 5246,
        " soft</w>": 5247,
        " safe</w>": 5248,
        " minute</w>": 5249,
        "dom</w>": 5250,
        "W</w>": 5251,
        " daughter</w>": 5252,
        "anger</w>": 5253,
        " hot</w>": 5254,
        "osp": 5255,
        "orted</w>": 5256,
        " wonder</w>": 5257,
        " gar": 5258,
        " hom": 5259,
        "thy</w>": 5260,
        "ative</w>": 5261,
        " remembered</w>": 5262,
        "ution</w>": 5263,
        " pop": 5264,
        " worse</w>": 5265,
        "ures</w>": 5266,
        " Car": 5267,
        "face</w>": 5268,
        " tired</w>": 5269,
        " further</w>": 5270,
        " knowing</w>": 5271,
        " memory</w>": 5272,
        " Chr": 5273,
        " Good</w>": 5274,
        "amed</w>": 5275,
        "V</w>": 5276,
        " turns</w>": 5277,
        " creature</w>": 5278,
        " desp": 5279,
        "ats</w>": 5280,
        " Tr": 5281,
        " foot</w>": 5282,
        " YOU</w>": 5283,
        " reading</w>": 5284,
        " woke</w>": 5285,
        " pay</w>": 5286,
        " noise</w>": 5287,
        "up</w>": 5288,
        " prof": 5289,
        " threw</w>": 5290,
        "It</w>": 5291,
        " moments</w>": 5292,
        "ects</w>": 5293,
        " forever</w>": 5294,
        " finished</w>": 5295,
        "iety</w>": 5296,
        " often</w>": 5297,
        "come</w>": 5298,
        " ‘</w>": 5299,
        "itten</w>": 5300,
        " gro": 5301,
        " truth</w>": 5302,
        " whispered</w>": 5303,
        " doctor</w>": 5304,
        " telling</w>": 5305,
        " recogn": 5306,
        "bbing</w>": 5307,
        "ssed</w>": 5308,
        " class</w>": 5309,
        " finger</w>": 5310,
        " wearing</w>": 5311,
        " ears</w>": 5312,
        " prepar": 5313,
        "vious</w>": 5314,
        " corr": 5315,
        "essing</w>": 5316,
        "light</w>": 5317,
        " afraid</w>": 5318,
        " moun": 5319,
        " dee": 5320,
        " El": 5321,
        "ret": 5322,
        "~~": 5323,
        " equ": 5324,
        " Hell</w>": 5325,
        "icking</w>": 5326,
        "ience</w>": 5327,
        " Qu": 5328,
        " police</w>": 5329,
        " species</w>": 5330,
        " ill": 5331,
        " screaming</w>": 5332,
        " means</w>": 5333,
        " tel": 5334,
        " familiar</w>": 5335,
        "use</w>": 5336,
        "asses</w>": 5337,
        " \n \n When</w>": 5338,
        "hes</w>": 5339,
        " battle</w>": 5340,
        "od": 5341,
        " thousand</w>": 5342,
        "zen</w>": 5343,
        "for": 5344,
        " chee": 5345,
        " baby</w>": 5346,
        "iter": 5347,
        " stuck</w>": 5348,
        " Look</w>": 5349,
        " Our</w>": 5350,
        " truly</w>": 5351,
        "inally</w>": 5352,
        "using</w>": 5353,
        " wide</w>": 5354,
        " memories</w>": 5355,
        "ide": 5356,
        " returned</w>": 5357,
        "ster": 5358,
        " shr": 5359,
        " pick</w>": 5360,
        " power": 5361,
        " \n \n This</w>": 5362,
        " le": 5363,
        " mass": 5364,
        " na": 5365,
        " confused</w>": 5366,
        " dying</w>": 5367,
        " smoke</w>": 5368,
        "ait</w>": 5369,
        "ances</w>": 5370,
        " evil</w>": 5371,
        " convers": 5372,
        " somehow</w>": 5373,
        " ended</w>": 5374,
        " tom": 5375,
        "usion</w>": 5376,
        "inks</w>": 5377,
        " sus": 5378,
        " \n \n *</w>": 5379,
        " exist": 5380,
        "H</w>": 5381,
        " choice</w>": 5382,
        " scient": 5383,
        " bra": 5384,
        "oming</w>": 5385,
        " tiny</w>": 5386,
        " People</w>": 5387,
        "ump</w>": 5388,
        " created</w>": 5389,
        " situation</w>": 5390,
        " couldn</w>": 5391,
        " mas": 5392,
        " rolled</w>": 5393,
        " worry</w>": 5394,
        " \n \n That</w>": 5395,
        " wi": 5396,
        "thes</w>": 5397,
        "ase</w>": 5398,
        " Bec": 5399,
        " energ": 5400,
        " gun": 5401,
        " sign</w>": 5402,
        " beginning</w>": 5403,
        " pointed</w>": 5404,
        " che": 5405,
        " reality</w>": 5406,
        "arr": 5407,
        " red": 5408,
        " coo": 5409,
        " contact</w>": 5410,
        " women</w>": 5411,
        " Rea": 5412,
        "her": 5413,
        " figh": 5414,
        " catch</w>": 5415,
        "-s": 5416,
        " \n \n So</w>": 5417,
        "ourn": 5418,
        " hosp": 5419,
        " mirror</w>": 5420,
        " bath": 5421,
        "rit": 5422,
        " hero</w>": 5423,
        "ests</w>": 5424,
        " od": 5425,
        " giving</w>": 5426,
        " shoo": 5427,
        "zed</w>": 5428,
        " questions</w>": 5429,
        " button</w>": 5430,
        " early</w>": 5431,
        " ment": 5432,
        " worth</w>": 5433,
        "ma</w>": 5434,
        " refl": 5435,
        "ormation</w>": 5436,
        " calm</w>": 5437,
        " curr": 5438,
        "Wh": 5439,
        "ulation</w>": 5440,
        " win": 5441,
        " However</w>": 5442,
        " clim": 5443,
        "ord": 5444,
        " crying</w>": 5445,
        " pass</w>": 5446,
        " end": 5447,
        " yelled</w>": 5448,
        " nerv": 5449,
        "inal</w>": 5450,
        "-l": 5451,
        " weird</w>": 5452,
        " viol": 5453,
        "ounds</w>": 5454,
        "elled</w>": 5455,
        " somewhere</w>": 5456,
        " alien</w>": 5457,
        "dit</w>": 5458,
        " expected</w>": 5459,
        " country</w>": 5460,
        " desper": 5461,
        "F</w>": 5462,
        " tall</w>": 5463,
        "onight</w>": 5464,
        " din": 5465,
        "attered</w>": 5466,
        " crazy</w>": 5467,
        " starting</w>": 5468,
        "OO": 5469,
        " business</w>": 5470,
        " falling</w>": 5471,
        " sometimes</w>": 5472,
        " Can</w>": 5473,
        "ises</w>": 5474,
        " \n \n In</w>": 5475,
        "etic</w>": 5476,
        " six</w>": 5477,
        " continue</w>": 5478,
        " Sat": 5479,
        " 1</w>": 5480,
        " stars</w>": 5481,
        " slow</w>": 5482,
        " Sc": 5483,
        " ow": 5484,
        "ective</w>": 5485,
        "kers</w>": 5486,
        " down": 5487,
        "EA": 5488,
        "ighb": 5489,
        "ech</w>": 5490,
        "acing</w>": 5491,
        "enn": 5492,
        " camer": 5493,
        "ebr": 5494,
        " 10</w>": 5495,
        " Their</w>": 5496,
        " government</w>": 5497,
        " ech": 5498,
        " cry</w>": 5499,
        "owledge</w>": 5500,
        "ING</w>": 5501,
        " fol": 5502,
        " sett": 5503,
        " nose</w>": 5504,
        "aster</w>": 5505,
        " apartment</w>": 5506,
        " sof": 5507,
        " \n \n You</w>": 5508,
        " stomach</w>": 5509,
        "ume</w>": 5510,
        " gas": 5511,
        "air</w>": 5512,
        "ization</w>": 5513,
        " phys": 5514,
        "arg": 5515,
        " 5</w>": 5516,
        "ette</w>": 5517,
        " pal": 5518,
        "ocks</w>": 5519,
        " learned</w>": 5520,
        " team</w>": 5521,
        "omp": 5522,
        "irst</w>": 5523,
        " far": 5524,
        " scared</w>": 5525,
        "rist</w>": 5526,
        "ah": 5527,
        " low</w>": 5528,
        "#</w>": 5529,
        "eter</w>": 5530,
        "amp": 5531,
        "the</w>": 5532,
        " eventually</w>": 5533,
        " peace</w>": 5534,
        " lou": 5535,
        "ural</w>": 5536,
        " non": 5537,
        " wra": 5538,
        " touch</w>": 5539,
        " steps</w>": 5540,
        " roo": 5541,
        " escape</w>": 5542,
        "llen</w>": 5543,
        "tering</w>": 5544,
        " ahead</w>": 5545,
        " neighb": 5546,
        " head": 5547,
        " older</w>": 5548,
        " beneath</w>": 5549,
        " chuck": 5550,
        " perhaps</w>": 5551,
        " expr": 5552,
        "up": 5553,
        " etern": 5554,
        " cool</w>": 5555,
        " Come</w>": 5556,
        " add": 5557,
        " blin": 5558,
        " forget</w>": 5559,
        " none</w>": 5560,
        " bed": 5561,
        " clean</w>": 5562,
        "ism</w>": 5563,
        " happening</w>": 5564,
        "od</w>": 5565,
        "-c": 5566,
        "itely</w>": 5567,
        " gotten</w>": 5568,
        " enc": 5569,
        "act": 5570,
        "ency</w>": 5571,
        " leaned</w>": 5572,
        " trees</w>": 5573,
        "ude</w>": 5574,
        " showed</w>": 5575,
        "enter</w>": 5576,
        "cher</w>": 5577,
        " unl": 5578,
        " note</w>": 5579,
        "idge</w>": 5580,
        " at": 5581,
        " race</w>": 5582,
        "esh": 5583,
        " trea": 5584,
        " stone</w>": 5585,
        " energy</w>": 5586,
        " hall": 5587,
        "ault</w>": 5588,
        "issed</w>": 5589,
        " third</w>": 5590,
        " scream</w>": 5591,
        "oh": 5592,
        " Something</w>": 5593,
        " hole</w>": 5594,
        " stret": 5595,
        " follow</w>": 5596,
        "uttered</w>": 5597,
        " bodies</w>": 5598,
        " brown</w>": 5599,
        " worst</w>": 5600,
        " James</w>": 5601,
        "omb": 5602,
        " clothes</w>": 5603,
        " lead</w>": 5604,
        "though</w>": 5605,
        " const": 5606,
        " picture</w>": 5607,
        " thick</w>": 5608,
        " except</w>": 5609,
        " shaking</w>": 5610,
        " surface</w>": 5611,
        " doub": 5612,
        "test</w>": 5613,
        " gaze</w>": 5614,
        "ades</w>": 5615,
        "angu": 5616,
        " obs": 5617,
        " Two</w>": 5618,
        " secret</w>": 5619,
        "ign</w>": 5620,
        " conn": 5621,
        " entered</w>": 5622,
        " var": 5623,
        "z</w>": 5624,
        " possi": 5625,
        "ard": 5626,
        " existence</w>": 5627,
        " Only</w>": 5628,
        " THE</w>": 5629,
        " sal": 5630,
        " path</w>": 5631,
        " Sir</w>": 5632,
        " arrived</w>": 5633,
        " nec": 5634,
        " state</w>": 5635,
        "000</w>": 5636,
        " Any": 5637,
        " explain</w>": 5638,
        " purp": 5639,
        " remo": 5640,
        " response</w>": 5641,
        " he": 5642,
        "line</w>": 5643,
        "ye</w>": 5644,
        " Jack</w>": 5645,
        " strea": 5646,
        "dings</w>": 5647,
        " ver": 5648,
        " happens</w>": 5649,
        " fif": 5650,
        " clearly</w>": 5651,
        " hospital</w>": 5652,
        " certain</w>": 5653,
        " descri": 5654,
        " Okay</w>": 5655,
        " \n \n His</w>": 5656,
        " Pres": 5657,
        " fighting</w>": 5658,
        " information</w>": 5659,
        "ucky</w>": 5660,
        "-f": 5661,
        " cried</w>": 5662,
        " usually</w>": 5663,
        " \n \n After</w>": 5664,
        " fea": 5665,
        " liked</w>": 5666,
        " vision</w>": 5667,
        " Ste": 5668,
        " free": 5669,
        " faces</w>": 5670,
        " allowed</w>": 5671,
        " massive</w>": 5672,
        "icks</w>": 5673,
        " usual</w>": 5674,
        "equ": 5675,
        " won</w>": 5676,
        "vely</w>": 5677,
        "tim": 5678,
        "ww": 5679,
        " ability</w>": 5680,
        "leep</w>": 5681,
        "ury</w>": 5682,
        " corp": 5683,
        " birth": 5684,
        "ges</w>": 5685,
        " sat": 5686,
        " \n \n \n “</w>": 5687,
        " \n \n Then</w>": 5688,
        " poor</w>": 5689,
        " trou": 5690,
        " paused</w>": 5691,
        " Inst": 5692,
        " numb": 5693,
        "inted</w>": 5694,
        " cat</w>": 5695,
        " send</w>": 5696,
        " powers</w>": 5697,
        " dang": 5698,
        " Because</w>": 5699,
        " music</w>": 5700,
        " learn</w>": 5701,
        " view</w>": 5702,
        " soul": 5703,
        " powerful</w>": 5704,
        "ounding</w>": 5705,
        "etly</w>": 5706,
        " impos": 5707,
        " month</w>": 5708,
        " Char": 5709,
        "ellig": 5710,
        " jumped</w>": 5711,
        " \n ": 5712,
        " sister</w>": 5713,
        " party</w>": 5714,
        "eted</w>": 5715,
        "ucked</w>": 5716,
        " surprise</w>": 5717,
        " special</w>": 5718,
        " bottle</w>": 5719,
        " listen</w>": 5720,
        "esus</w>": 5721,
        " rul": 5722,
        " civ": 5723,
        " Was</w>": 5724,
        "dden</w>": 5725,
        "tors</w>": 5726,
        "idden</w>": 5727,
        " area</w>": 5728,
        " serv": 5729,
        "ots</w>": 5730,
        " rock</w>": 5731,
        " rose</w>": 5732,
        " ear</w>": 5733,
        "acking</w>": 5734,
        "iss": 5735,
        " killing</w>": 5736,
        " growing</w>": 5737,
        " These</w>": 5738,
        "vers</w>": 5739,
        " lose</w>": 5740,
        "ash": 5741,
        " env": 5742,
        "une</w>": 5743,
        " dragon</w>": 5744,
        " conversation</w>": 5745,
        " 9": 5746,
        "ient</w>": 5747,
        " sick</w>": 5748,
        " approached</w>": 5749,
        " dreams</w>": 5750,
        " rain</w>": 5751,
        "erous</w>": 5752,
        " travel</w>": 5753,
        "eral</w>": 5754,
        " shall</w>": 5755,
        "-h": 5756,
        " spir": 5757,
        "fri": 5758,
        "itted</w>": 5759,
        "esp": 5760,
        " reac": 5761,
        "idence</w>": 5762,
        "ammed</w>": 5763,
        " locked</w>": 5764,
        " glanced</w>": 5765,
        "ified</w>": 5766,
        "eling</w>": 5767,
        " should": 5768,
        "ob": 5769,
        "viously</w>": 5770,
        " company</w>": 5771,
        " grow</w>": 5772,
        "amm": 5773,
        " Cap": 5774,
        " forced</w>": 5775,
        " New</w>": 5776,
        " now": 5777,
        " experience</w>": 5778,
        "-t": 5779,
        " Luc": 5780,
        " Everything</w>": 5781,
        " Wor": 5782,
        " lun": 5783,
        "amn</w>": 5784,
        "oose</w>": 5785,
        "essly</w>": 5786,
        " cond": 5787,
        "mm": 5788,
        " field</w>": 5789,
        " weapon</w>": 5790,
        " hus": 5791,
        " direction</w>": 5792,
        " angry</w>": 5793,
        " langu": 5794,
        " dust</w>": 5795,
        " smiling</w>": 5796,
        " beside</w>": 5797,
        "arently</w>": 5798,
        " position</w>": 5799,
        " foot": 5800,
        " knowledge</w>": 5801,
        "****": 5802,
        " jud": 5803,
        "stly</w>": 5804,
        "ean": 5805,
        " stare</w>": 5806,
        " starts</w>": 5807,
        "aur": 5808,
        "ishing</w>": 5809,
        " complete</w>": 5810,
        " beat</w>": 5811,
        " intern": 5812,
        " favor": 5813,
        "ional</w>": 5814,
        " cause</w>": 5815,
        "oms</w>": 5816,
        " Thank</w>": 5817,
        " clou": 5818,
        "llow</w>": 5819,
        " shock</w>": 5820,
        "elop": 5821,
        " Ev": 5822,
        " weapons</w>": 5823,
        "ER</w>": 5824,
        " pati": 5825,
        "sy": 5826,
        " knees</w>": 5827,
        " concer": 5828,
        " elec": 5829,
        "r/": 5830,
        "AN": 5831,
        " nobody</w>": 5832,
        "ouse</w>": 5833,
        " sounded</w>": 5834,
        " da": 5835,
        "izing</w>": 5836,
        " terrible</w>": 5837,
        " huge</w>": 5838,
        " remin": 5839,
        " #</w>": 5840,
        " cig": 5841,
        " monster</w>": 5842,
        " progr": 5843,
        " flesh</w>": 5844,
        "ign": 5845,
        " sudden</w>": 5846,
        " giant</w>": 5847,
        " journ": 5848,
        " recei": 5849,
        " test</w>": 5850,
        " extr": 5851,
        " tonight</w>": 5852,
        " guard</w>": 5853,
        "C</w>": 5854,
        " \n \n ></w>": 5855,
        " pressed</w>": 5856,
        "eated</w>": 5857,
        "cient</w>": 5858,
        "%</w>": 5859,
        " %</w>": 5860,
        " Before</w>": 5861,
        " stairs</w>": 5862,
        "ik": 5863,
        " suppose</w>": 5864,
        " org": 5865,
        " drive</w>": 5866,
        " due</w>": 5867,
        " written</w>": 5868,
        " shirt</w>": 5869,
        "astic</w>": 5870,
        " prov": 5871,
        "board</w>": 5872,
        " ^": 5873,
        " drop</w>": 5874,
        " pra": 5875,
        " hall</w>": 5876,
        " lit</w>": 5877,
        " thin</w>": 5878,
        " wants</w>": 5879,
        " Fuck</w>": 5880,
        " anger</w>": 5881,
        " unf": 5882,
        "ements</w>": 5883,
        " strength</w>": 5884,
        " Hello</w>": 5885,
        "otten</w>": 5886,
        " Sar": 5887,
        "ina</w>": 5888,
        " date</w>": 5889,
        " prec": 5890,
        " apart</w>": 5891,
        " store</w>": 5892,
        " From</w>": 5893,
        " character</w>": 5894,
        " spread</w>": 5895,
        "initely</w>": 5896,
        "que</w>": 5897,
        "ax</w>": 5898,
        " center</w>": 5899,
        " letter</w>": 5900,
        "-b": 5901,
        " Ne": 5902,
        "ender</w>": 5903,
        " grab</w>": 5904,
        " yeah</w>": 5905,
        " inn": 5906,
        " draw": 5907,
        "ael</w>": 5908,
        "actic": 5909,
        " spot</w>": 5910,
        " Hea": 5911,
        " Those</w>": 5912,
        " level</w>": 5913,
        " grin</w>": 5914,
        " susp": 5915,
        " hoping</w>": 5916,
        "ix": 5917,
        " forest</w>": 5918,
        " burning</w>": 5919,
        " shoulders</w>": 5920,
        "ef</w>": 5921,
        "aint</w>": 5922,
        "ED</w>": 5923,
        " Wait</w>": 5924,
        " sharp</w>": 5925,
        " built</w>": 5926,
        " sigh</w>": 5927,
        " Once</w>": 5928,
        " discovered</w>": 5929,
        "elcome</w>": 5930,
        "ield</w>": 5931,
        "erry</w>": 5932,
        " moon</w>": 5933,
        "ires</w>": 5934,
        "-d": 5935,
        "hood</w>": 5936,
        " tone</w>": 5937,
        " train</w>": 5938,
        " vide": 5939,
        " thir": 5940,
        " blade</w>": 5941,
        " Ac": 5942,
        "ress</w>": 5943,
        " produc": 5944,
        "land</w>": 5945,
        "iens</w>": 5946,
        " publ": 5947,
        " attack</w>": 5948,
        "umed</w>": 5949,
        " shif": 5950,
        " gath": 5951,
        "ments</w>": 5952,
        " wondered</w>": 5953,
        " collap": 5954,
        " orig": 5955,
        " surprised</w>": 5956,
        " President</w>": 5957,
        " joke</w>": 5958,
        " quietly</w>": 5959,
        " bathroom</w>": 5960,
        "==": 5961,
        " demon</w>": 5962,
        " asking</w>": 5963,
        " stro": 5964,
        " gold</w>": 5965,
        "urity</w>": 5966,
        "und": 5967,
        " \n \n \n I</w>": 5968,
        "bled</w>": 5969,
        "igned</w>": 5970,
        "sters</w>": 5971,
        " Mich": 5972,
        " feels</w>": 5973,
        " favorite</w>": 5974,
        " remained</w>": 5975,
        " lik": 5976,
        " maj": 5977,
        " pulling</w>": 5978,
        "ander</w>": 5979,
        "band</w>": 5980,
        " figured</w>": 5981,
        " laughing</w>": 5982,
        "oph": 5983,
        " sad</w>": 5984,
        " imagine</w>": 5985,
        " weight</w>": 5986,
        "itary</w>": 5987,
        " exh": 5988,
        "owers</w>": 5989,
        " forgotten</w>": 5990,
        " odd</w>": 5991,
        "aw</w>": 5992,
        "rec": 5993,
        " but": 5994,
        " gent": 5995,
        " attempt</w>": 5996,
        " bill": 5997,
        " failed</w>": 5998,
        " Tell</w>": 5999,
        " meeting</w>": 6000,
        " tomorrow</w>": 6001,
        " grey</w>": 6002,
        "atic</w>": 6003,
        "oy": 6004,
        " Here</w>": 6005,
        " cover</w>": 6006,
        " handle</w>": 6007,
        " By</w>": 6008,
        "osing</w>": 6009,
        "tered</w>": 6010,
        " fil": 6011,
        " technology</w>": 6012,
        " scene</w>": 6013,
        "yc": 6014,
        "ull</w>": 6015,
        "ric": 6016,
        "ark": 6017,
        " interru": 6018,
        " Sm": 6019,
        " liter": 6020,
        "sting</w>": 6021,
        " creatures</w>": 6022,
        "-m": 6023,
        " Most</w>": 6024,
        "eased</w>": 6025,
        " gol": 6026,
        "ocking</w>": 6027,
        " Jesus</w>": 6028,
        " gh": 6029,
        " funny</w>": 6030,
        " cab": 6031,
        " led</w>": 6032,
        "ege</w>": 6033,
        "tainly</w>": 6034,
        " among</w>": 6035,
        "vering</w>": 6036,
        " phot": 6037,
        " ways</w>": 6038,
        " comb": 6039,
        " begins</w>": 6040,
        " process</w>": 6041,
        " impr": 6042,
        " boss</w>": 6043,
        " color</w>": 6044,
        " heat</w>": 6045,
        " luck</w>": 6046,
        " \n \n \n \n": 6047,
        " clock</w>": 6048,
        " mid": 6049,
        "teen</w>": 6050,
        " miss</w>": 6051,
        " thousands</w>": 6052,
        " agre": 6053,
        " 6": 6054,
        "ash</w>": 6055,
        " wid": 6056,
        " Sure</w>": 6057,
        "AR": 6058,
        " Sorry</w>": 6059,
        " amaz": 6060,
        "ov": 6061,
        " hide</w>": 6062,
        " chang": 6063,
        " Its</w>": 6064,
        " arr": 6065,
        " Fl": 6066,
        " Gre": 6067,
        " asleep</w>": 6068,
        " Ph": 6069,
        " following</w>": 6070,
        " books</w>": 6071,
        " enemy</w>": 6072,
        " answered</w>": 6073,
        " Gu": 6074,
        " rob": 6075,
        " act</w>": 6076,
        "reds</w>": 6077,
        " laid</w>": 6078,
        " self</w>": 6079,
        "itor</w>": 6080,
        " lie</w>": 6081,
        " station</w>": 6082,
        " calling</w>": 6083,
        "aped</w>": 6084,
        " vir": 6085,
        " Dad</w>": 6086,
        " fit</w>": 6087,
        "izz": 6088,
        "du": 6089,
        " breathing</w>": 6090,
        " gently</w>": 6091,
        "oods</w>": 6092,
        " sweet</w>": 6093,
        "friend</w>": 6094,
        " \n \n &</w>": 6095,
        " finish</w>": 6096,
        " night": 6097,
        " revea": 6098,
        " survive</w>": 6099,
        " Man</w>": 6100,
        "atch</w>": 6101,
        "ton</w>": 6102,
        " diffic": 6103,
        "uction</w>": 6104,
        " leg</w>": 6105,
        "-w": 6106,
        " expect</w>": 6107,
        " purpose</w>": 6108,
        " birthday</w>": 6109,
        "esit": 6110,
        " TV</w>": 6111,
        "ooking</w>": 6112,
        " Perhaps</w>": 6113,
        " crew</w>": 6114,
        " carefully</w>": 6115,
        " faster</w>": 6116,
        "ecting</w>": 6117,
        " spend</w>": 6118,
        "ester": 6119,
        " ring</w>": 6120,
        "pecially</w>": 6121,
        " hung</w>": 6122,
        " counter</w>": 6123,
        "lic": 6124,
        "ak</w>": 6125,
        "fortun": 6126,
        " decide</w>": 6127,
        " dressed</w>": 6128,
        " king</w>": 6129,
        " 19": 6130,
        "ences</w>": 6131,
        " bal": 6132,
        " Ag": 6133,
        " ur": 6134,
        " tot": 6135,
        " missing</w>": 6136,
        " can": 6137,
        " bottom</w>": 6138,
        " targ": 6139,
        "ob</w>": 6140,
        "bers</w>": 6141,
        " lying</w>": 6142,
        "eys</w>": 6143,
        "org": 6144,
        " tas": 6145,
        " sea</w>": 6146,
        " sym": 6147,
        " door": 6148,
        " ancient</w>": 6149,
        " forth</w>": 6150,
        " exam": 6151,
        " horror</w>": 6152,
        " needs</w>": 6153,
        " terrif": 6154,
        " gest": 6155,
        " King</w>": 6156,
        " electr": 6157,
        "EE": 6158,
        "AT</w>": 6159,
        "ier</w>": 6160,
        " numbers</w>": 6161,
        " lifted</w>": 6162,
        " Lord</w>": 6163,
        "fortable</w>": 6164,
        " played</w>": 6165,
        " our": 6166,
        " Instead</w>": 6167,
        " exist</w>": 6168,
        " displ": 6169,
        "OR": 6170,
        " sweat</w>": 6171,
        " Have</w>": 6172,
        " aut": 6173,
        " entir": 6174,
        " ass</w>": 6175,
        "arm</w>": 6176,
        " mess</w>": 6177,
        " fought</w>": 6178,
        "inned</w>": 6179,
        " intellig": 6180,
        " main</w>": 6181,
        " Today</w>": 6182,
        " despite</w>": 6183,
        " 7": 6184,
        "LL</w>": 6185,
        "bit</w>": 6186,
        " reb": 6187,
        " twenty</w>": 6188,
        "lier</w>": 6189,
        " communic": 6190,
        " places</w>": 6191,
        "aring</w>": 6192,
        "unt</w>": 6193,
        " Get</w>": 6194,
        " ice</w>": 6195,
        " amount</w>": 6196,
        "redi": 6197,
        " nature</w>": 6198,
        " screams</w>": 6199,
        "ub": 6200,
        " streets</w>": 6201,
        "oo</w>": 6202,
        "olut": 6203,
        " Time</w>": 6204,
        " resear": 6205,
        " rest": 6206,
        " mission</w>": 6207,
        " hesit": 6208,
        "ON": 6209,
        " speed</w>": 6210,
        "ashed</w>": 6211,
        " leaves</w>": 6212,
        "ric</w>": 6213,
        " sentence</w>": 6214,
        " soldiers</w>": 6215,
        "yle</w>": 6216,
        " camera</w>": 6217,
        " rand": 6218,
        "ational</w>": 6219,
        " beast</w>": 6220,
        "ember</w>": 6221,
        " sens": 6222,
        " easily</w>": 6223,
        " speaking</w>": 6224,
        " Sl": 6225,
        " lady</w>": 6226,
        " simil": 6227,
        " nur": 6228,
        " page</w>": 6229,
        " pale</w>": 6230,
        "res": 6231,
        " pot": 6232,
        " radio</w>": 6233,
        " gal": 6234,
        " million</w>": 6235,
        " val": 6236,
        " Jim</w>": 6237,
        "bles</w>": 6238,
        " wood": 6239,
        " song</w>": 6240,
        " local</w>": 6241,
        "orth</w>": 6242,
        " arg": 6243,
        " language</w>": 6244,
        "ground</w>": 6245,
        " rou": 6246,
        "ends</w>": 6247,
        " fallen</w>": 6248,
        "abl": 6249,
        " impossible</w>": 6250,
        " 4</w>": 6251,
        "esses</w>": 6252,
        " caused</w>": 6253,
        " after": 6254,
        " tor": 6255,
        " mer": 6256,
        " Dav": 6257,
        "war": 6258,
        " //": 6259,
        "gra": 6260,
        " coat</w>": 6261,
        " too": 6262,
        "omed</w>": 6263,
        " \n \n An": 6264,
        "eas</w>": 6265,
        " und": 6266,
        "ails</w>": 6267,
        "eep": 6268,
        " cre": 6269,
        " cigar": 6270,
        " cup</w>": 6271,
        " lucky</w>": 6272,
        " yellow</w>": 6273,
        "ern": 6274,
        " nearby</w>": 6275,
        " flying</w>": 6276,
        " Mon": 6277,
        "airs</w>": 6278,
        "ential</w>": 6279,
        "oody</w>": 6280,
        " burst</w>": 6281,
        " ident": 6282,
        " Right</w>": 6283,
        "usted</w>": 6284,
        "ugs</w>": 6285,
        "oured</w>": 6286,
        " While</w>": 6287,
        "AA": 6288,
        " scra": 6289,
        " \n \n With</w>": 6290,
        " dinner</w>": 6291,
        " dim": 6292,
        "sych": 6293,
        " round</w>": 6294,
        "thed</w>": 6295,
        " create</w>": 6296,
        "eeding</w>": 6297,
        " husband</w>": 6298,
        "con": 6299,
        "ipe</w>": 6300,
        " society</w>": 6301,
        "ancing</w>": 6302,
        " Captain</w>": 6303,
        " ce": 6304,
        " musc": 6305,
        " Another</w>": 6306,
        " shel": 6307,
        "aking</w>": 6308,
        "y*</w>": 6309,
        " pass": 6310,
        " everywhere</w>": 6311,
        " Mr</w>": 6312,
        " panic</w>": 6313,
        "ix</w>": 6314,
        " disg": 6315,
        "umbling</w>": 6316,
        " destroyed</w>": 6317,
        " opening</w>": 6318,
        "pper</w>": 6319,
        " 20</w>": 6320,
        "eeze</w>": 6321,
        " interesting</w>": 6322,
        " focus</w>": 6323,
        " 20": 6324,
        " jack": 6325,
        " perfectly</w>": 6326,
        "owl</w>": 6327,
        " weak</w>": 6328,
        " Still</w>": 6329,
        " hated</w>": 6330,
        " tong": 6331,
        "ley</w>": 6332,
        "ior</w>": 6333,
        " size</w>": 6334,
        " trem": 6335,
        " Ab": 6336,
        "oll": 6337,
        " flash</w>": 6338,
        " pieces</w>": 6339,
        "c</w>": 6340,
        "set</w>": 6341,
        " oh</w>": 6342,
        " shadow</w>": 6343,
        "ussi": 6344,
        " disappeared</w>": 6345,
        " Ge": 6346,
        "hh": 6347,
        " stayed</w>": 6348,
        " rif": 6349,
        " saved</w>": 6350,
        "oken</w>": 6351,
        "rying</w>": 6352,
        " certainly</w>": 6353,
        " Tom</w>": 6354,
        " alright</w>": 6355,
        " fate</w>": 6356,
        " oper": 6357,
        " pair</w>": 6358,
        " Exc": 6359,
        " accep": 6360,
        " law": 6361,
        " snapped</w>": 6362,
        " echo": 6363,
        " greatest</w>": 6364,
        " souls</w>": 6365,
        " grav": 6366,
        " laughter</w>": 6367,
        " boun": 6368,
        " gods</w>": 6369,
        " flew</w>": 6370,
        " iss": 6371,
        "dness</w>": 6372,
        " Great</w>": 6373,
        " leader</w>": 6374,
        " ball</w>": 6375,
        "olved</w>": 6376,
        "acy</w>": 6377,
        "umb</w>": 6378,
        " lines</w>": 6379,
        " kill": 6380,
        " buy</w>": 6381,
        " div": 6382,
        "ench</w>": 6383,
        " prepared</w>": 6384,
        " checked</w>": 6385,
        " dirt</w>": 6386,
        "agg": 6387,
        " windows</w>": 6388,
        " \n \n At</w>": 6389,
        "ath</w>": 6390,
        " heaven</w>": 6391,
        " ris": 6392,
        "ners</w>": 6393,
        " doubt</w>": 6394,
        "oughout</w>": 6395,
        " Dr.</w>": 6396,
        " Alright</w>": 6397,
        "ousness</w>": 6398,
        " directly</w>": 6399,
        " mistake</w>": 6400,
        " threa": 6401,
        " burned</w>": 6402,
        "ties</w>": 6403,
        " X": 6404,
        " expression</w>": 6405,
        " clouds</w>": 6406,
        "-p": 6407,
        " faded</w>": 6408,
        "ular": 6409,
        " Satan</w>": 6410,
        " adj": 6411,
        " works</w>": 6412,
        "yr": 6413,
        " jump</w>": 6414,
        " awake</w>": 6415,
        " es": 6416,
        " definitely</w>": 6417,
        "owned</w>": 6418,
        " couch</w>": 6419,
        " keeping</w>": 6420,
        " trouble</w>": 6421,
        "ords</w>": 6422,
        " considered</w>": 6423,
        " girls</w>": 6424,
        " type</w>": 6425,
        " nor</w>": 6426,
        "isf": 6427,
        " wore</w>": 6428,
        " push</w>": 6429,
        " officer</w>": 6430,
        "aded</w>": 6431,
        " blank": 6432,
        " bus</w>": 6433,
        " helped</w>": 6434,
        " hallway</w>": 6435,
        " earlier</w>": 6436,
        " audi": 6437,
        "bing</w>": 6438,
        " pred": 6439,
        "yst": 6440,
        " increa": 6441,
        " bast": 6442,
        " choose</w>": 6443,
        "pt": 6444,
        " responded</w>": 6445,
        " Ah</w>": 6446,
        " ceiling</w>": 6447,
        " whether</w>": 6448,
        " worl": 6449,
        " form": 6450,
        " idi": 6451,
        " 201": 6452,
        " develop": 6453,
        " video</w>": 6454,
        " paid</w>": 6455,
        " civil": 6456,
        "AT": 6457,
        " cell</w>": 6458,
        " miles</w>": 6459,
        " inh": 6460,
        " landed</w>": 6461,
        " htt": 6462,
        " kind": 6463,
        " security</w>": 6464,
        " throw</w>": 6465,
        " summ": 6466,
        " asks</w>": 6467,
        " dat": 6468,
        " Go</w>": 6469,
        " With": 6470,
        " heads</w>": 6471,
        " bedroom</w>": 6472,
        "mly</w>": 6473,
        " sour": 6474,
        " tear</w>": 6475,
        " First</w>": 6476,
        " 8": 6477,
        " \n \n St": 6478,
        "ald</w>": 6479,
        "reh": 6480,
        "ipping</w>": 6481,
        " serious</w>": 6482,
        " drew</w>": 6483,
        " enjoy</w>": 6484,
        "011": 6485,
        " trip</w>": 6486,
        " hund": 6487,
        " emb": 6488,
        "ana</w>": 6489,
        " mul": 6490,
        "tains</w>": 6491,
        " hidden</w>": 6492,
        "amp</w>": 6493,
        " \n \n What</w>": 6494,
        "y.</w>": 6495,
        " wave</w>": 6496,
        "night</w>": 6497,
        " determ": 6498,
        " worried</w>": 6499,
        "inary</w>": 6500,
        "cing</w>": 6501,
        " part": 6502,
        " handed</w>": 6503,
        " WH": 6504,
        " boys</w>": 6505,
        "yer</w>": 6506,
        " craw": 6507,
        " brigh": 6508,
        "zing</w>": 6509,
        " talked</w>": 6510,
        " carried</w>": 6511,
        " steel</w>": 6512,
        "itive</w>": 6513,
        "You</w>": 6514,
        " aware</w>": 6515,
        " Doc": 6516,
        " Gen": 6517,
        " college</w>": 6518,
        " prompt</w>": 6519,
        " smoo": 6520,
        " thank</w>": 6521,
        " glasses</w>": 6522,
        " practic": 6523,
        " \n \n \n The</w>": 6524,
        " drunk</w>": 6525,
        " surviv": 6526,
        " likely</w>": 6527,
        "ehead</w>": 6528,
        " headed</w>": 6529,
        " break": 6530,
        " mostly</w>": 6531,
        " dear</w>": 6532,
        "essor</w>": 6533,
        " struck</w>": 6534,
        " beer</w>": 6535,
        " Sam</w>": 6536,
        "ilities</w>": 6537,
        " present</w>": 6538,
        " Bar": 6539,
        " excit": 6540,
        " bear</w>": 6541,
        " occas": 6542,
        "ater</w>": 6543,
        " spe": 6544,
        "osen</w>": 6545,
        " image</w>": 6546,
        " army</w>": 6547,
        "EN": 6548,
        " fresh</w>": 6549,
        "ump": 6550,
        " reply</w>": 6551,
        " wooden</w>": 6552,
        " missed</w>": 6553,
        " list</w>": 6554,
        " grass</w>": 6555,
        " crim": 6556,
        " dig": 6557,
        " named</w>": 6558,
        " oppos": 6559,
        " dest": 6560,
        " rushed</w>": 6561,
        "unn": 6562,
        " seven</w>": 6563,
        " por": 6564,
        " bear": 6565,
        " snow</w>": 6566,
        " ta</w>": 6567,
        " activ": 6568,
        " shop</w>": 6569,
        " decision</w>": 6570,
        " good": 6571,
        "known</w>": 6572,
        " experien": 6573,
        " difficult</w>": 6574,
        "ond": 6575,
        "umped</w>": 6576,
        " accident</w>": 6577,
        " animals</w>": 6578,
        " walks</w>": 6579,
        " cust": 6580,
        " sla": 6581,
        " explo": 6582,
        " eating</w>": 6583,
        " military</w>": 6584,
        "anted</w>": 6585,
        " instr": 6586,
        " believed</w>": 6587,
        " device</w>": 6588,
        " aband": 6589,
        " extrem": 6590,
        " NO": 6591,
        "ortun": 6592,
        " Finally</w>": 6593,
        " explos": 6594,
        "iff</w>": 6595,
        "________________________________": 6596,
        " mut": 6597,
        "eak</w>": 6598,
        " throughout</w>": 6599,
        " shape</w>": 6600,
        " sid": 6601,
        " win</w>": 6602,
        " Would</w>": 6603,
        " main": 6604,
        "inated</w>": 6605,
        " reas": 6606,
        " innoc": 6607,
        " aliens</w>": 6608,
        " star</w>": 6609,
        "aa": 6610,
        " brief": 6611,
        " mel": 6612,
        " sac": 6613,
        " \n He</w>": 6614,
        " hanging</w>": 6615,
        " park</w>": 6616,
        " forehead</w>": 6617,
        " possibly</w>": 6618,
        " stor": 6619,
        " muttered</w>": 6620,
        " surrounded</w>": 6621,
        " putting</w>": 6622,
        " movie</w>": 6623,
        " doll": 6624,
        " entirely</w>": 6625,
        " dangerous</w>": 6626,
        " whe": 6627,
        " entr": 6628,
        " guards</w>": 6629,
        " key</w>": 6630,
        " listening</w>": 6631,
        " heal": 6632,
        " Each</w>": 6633,
        " bi": 6634,
        " common</w>": 6635,
        "ites</w>": 6636,
        "enge</w>": 6637,
        " taste</w>": 6638,
        " voices</w>": 6639,
        " sugg": 6640,
        " glance</w>": 6641,
        " letting</w>": 6642,
        " Engl": 6643,
        " similar</w>": 6644,
        "rie": 6645,
        " offer</w>": 6646,
        " finding</w>": 6647,
        "err": 6648,
        " Mark</w>": 6649,
        "uses</w>": 6650,
        " names</w>": 6651,
        " destroy</w>": 6652,
        " slid</w>": 6653,
        "ifer</w>": 6654,
        " Sarah</w>": 6655,
        " busy</w>": 6656,
        " murder</w>": 6657,
        "akes</w>": 6658,
        " black": 6659,
        " mod": 6660,
        " rap": 6661,
        " \n \n Now</w>": 6662,
        " tongue</w>": 6663,
        "ib": 6664,
        " fix": 6665,
        "reci": 6666,
        "eeps</w>": 6667,
        "orge</w>": 6668,
        " unable</w>": 6669,
        " light": 6670,
        " Po": 6671,
        " psych": 6672,
        " Mom</w>": 6673,
        " Sw": 6674,
        " Cr": 6675,
        " gift</w>": 6676,
        " dry</w>": 6677,
        " Michael</w>": 6678,
        "ults</w>": 6679,
        " glow</w>": 6680,
        " golden</w>": 6681,
        " wood</w>": 6682,
        "ancer</w>": 6683,
        " sleeping</w>": 6684,
        " zomb": 6685,
        " shake</w>": 6686,
        " announ": 6687,
        " shadows</w>": 6688,
        "su": 6689,
        " small": 6690,
        " fully</w>": 6691,
        " John": 6692,
        " lack</w>": 6693,
        "$</w>": 6694,
        " grown</w>": 6695,
        " hundreds</w>": 6696,
        " vol": 6697,
        " fly</w>": 6698,
        " shrugged</w>": 6699,
        " plane</w>": 6700,
        " liqu": 6701,
        " super</w>": 6702,
        " card</w>": 6703,
        " \n \n K": 6704,
        " breaking</w>": 6705,
        " frozen</w>": 6706,
        " armor</w>": 6707,
        " swall": 6708,
        "bby</w>": 6709,
        "rote</w>": 6710,
        " understood</w>": 6711,
        " stab": 6712,
        " bones</w>": 6713,
        " yours</w>": 6714,
        "itched</w>": 6715,
        " Christ": 6716,
        " dress</w>": 6717,
        " cel": 6718,
        " becoming</w>": 6719,
        " nervous</w>": 6720,
        "ioned</w>": 6721,
        " Dan": 6722,
        " allow</w>": 6723,
        " tight</w>": 6724,
        " joy</w>": 6725,
        " stranger</w>": 6726,
        " Lea": 6727,
        " mad</w>": 6728,
        " Sometimes</w>": 6729,
        " protect</w>": 6730,
        "immy</w>": 6731,
        "pts</w>": 6732,
        "work</w>": 6733,
        " board</w>": 6734,
        " cru": 6735,
        " clea": 6736,
        "therw": 6737,
        " ten": 6738,
        " survi": 6739,
        " public</w>": 6740,
        " necess": 6741,
        " especially</w>": 6742,
        " share</w>": 6743,
        " slipped</w>": 6744,
        " hearing</w>": 6745,
        " \n \n No</w>": 6746,
        " wrapped</w>": 6747,
        " passing</w>": 6748,
        " low": 6749,
        " presence</w>": 6750,
        " post</w>": 6751,
        " America</w>": 6752,
        "oner</w>": 6753,
        "tory</w>": 6754,
        " harder</w>": 6755,
        " slammed</w>": 6756,
        "uries</w>": 6757,
        " random</w>": 6758,
        " $</w>": 6759,
        "UC": 6760,
        "ific</w>": 6761,
        "ustr": 6762,
        " bom": 6763,
        "laimed</w>": 6764,
        "eating</w>": 6765,
        "ishes</w>": 6766,
        " incredi": 6767,
        " Suddenly</w>": 6768,
        " wondering</w>": 6769,
        "erly</w>": 6770,
        "U</w>": 6771,
        " appreci": 6772,
        " van": 6773,
        " eternity</w>": 6774,
        "omm": 6775,
        "lear</w>": 6776,
        " glo": 6777,
        " 6</w>": 6778,
        " Or": 6779,
        " avoid</w>": 6780,
        " ocean</w>": 6781,
        " personal</w>": 6782,
        " TO</w>": 6783,
        " Steve</w>": 6784,
        "ident": 6785,
        " proud</w>": 6786,
        "imp": 6787,
        " join</w>": 6788,
        " angel</w>": 6789,
        " master</w>": 6790,
        " rid": 6791,
        "addy</w>": 6792,
        " enter</w>": 6793,
        "alk</w>": 6794,
        " \n \n For</w>": 6795,
        " gives</w>": 6796,
        " fired</w>": 6797,
        " child": 6798,
        " AN": 6799,
        " animal</w>": 6800,
        "lessly</w>": 6801,
        " More</w>": 6802,
        "_</w>": 6803,
        " big": 6804,
        " rise</w>": 6805,
        " prop": 6806,
        " fair</w>": 6807,
        "thing": 6808,
        " village</w>": 6809,
        " various</w>": 6810,
        " awk": 6811,
        " \n *": 6812,
        "o-": 6813,
        " suic": 6814,
        "ud</w>": 6815,
        "yl": 6816,
        " wet</w>": 6817,
        " although</w>": 6818,
        "ail": 6819,
        " younger</w>": 6820,
        " action</w>": 6821,
        " strang": 6822,
        "umble</w>": 6823,
        " princ": 6824,
        "ym": 6825,
        "ub</w>": 6826,
        " ships</w>": 6827,
        " Russi": 6828,
        " uns": 6829,
        " wrote</w>": 6830,
        " visit</w>": 6831,
        " Someone</w>": 6832,
        " ther": 6833,
        "VE</w>": 6834,
        "icated</w>": 6835,
        " touched</w>": 6836,
        " literally</w>": 6837,
        " promise</w>": 6838,
        " flick": 6839,
        " organ": 6840,
        " smir": 6841,
        " barr": 6842,
        " confusion</w>": 6843,
        " est": 6844,
        " gathered</w>": 6845,
        " just": 6846,
        "lli": 6847,
        " relig": 6848,
        "rib": 6849,
        "olf</w>": 6850,
        "istic</w>": 6851,
        "alls</w>": 6852,
        " shoes</w>": 6853,
        "div": 6854,
        " priv": 6855,
        " deb": 6856,
        "rag": 6857,
        " softly</w>": 6858,
        "ature</w>": 6859,
        " class": 6860,
        " girl": 6861,
        " effort</w>": 6862,
        " compan": 6863,
        " bloody</w>": 6864,
        " kicked</w>": 6865,
        "iev": 6866,
        " cars</w>": 6867,
        "orr": 6868,
        " forgot</w>": 6869,
        " Thanks</w>": 6870,
        " wiz": 6871,
        " received</w>": 6872,
        " stick</w>": 6873,
        " opposite</w>": 6874,
        " evening</w>": 6875,
        " ach": 6876,
        " Comm": 6877,
        " clut": 6878,
        " experim": 6879,
        " rage</w>": 6880,
        " comf": 6881,
        " mask</w>": 6882,
        " Will</w>": 6883,
        " Dave</w>": 6884,
        "esti": 6885,
        "aled</w>": 6886,
        "ensive</w>": 6887,
        " \n \n Her</w>": 6888,
        " jacket</w>": 6889,
        " cand": 6890,
        " aside</w>": 6891,
        "olutely</w>": 6892,
        " trust</w>": 6893,
        "bert</w>": 6894,
        " art": 6895,
        " War</w>": 6896,
        "IT": 6897,
        " scre": 6898,
        " fem": 6899,
        " crime</w>": 6900,
        " appears</w>": 6901,
        " fix</w>": 6902,
        " object</w>": 6903,
        " ban": 6904,
        " galax": 6905,
        " text</w>": 6906,
        "redd": 6907,
        "eing</w>": 6908,
        "igh</w>": 6909,
        " showing</w>": 6910,
        " amb": 6911,
        " consci": 6912,
        " pure</w>": 6913,
        " air": 6914,
        " rules</w>": 6915,
        " inj": 6916,
        "ager</w>": 6917,
        " David</w>": 6918,
        " soldier</w>": 6919,
        " minds</w>": 6920,
        "iter</w>": 6921,
        " chosen</w>": 6922,
        "fortunately</w>": 6923,
        " smo": 6924,
        " hard": 6925,
        " Im": 6926,
        " See</w>": 6927,
        "ians</w>": 6928,
        "verage</w>": 6929,
        " louder</w>": 6930,
        "icul": 6931,
        " cigarette</w>": 6932,
        "red": 6933,
        " American</w>": 6934,
        "ector</w>": 6935,
        " hous": 6936,
        "stairs</w>": 6937,
        " natural</w>": 6938,
        " truck</w>": 6939,
        "onic</w>": 6940,
        "ama</w>": 6941,
        " cul": 6942,
        "ilt</w>": 6943,
        " satisf": 6944,
        " apparently</w>": 6945,
        " burn</w>": 6946,
        " hoped</w>": 6947,
        " Se": 6948,
        " mass</w>": 6949,
        " vac": 6950,
        " particular</w>": 6951,
        " wiped</w>": 6952,
        " driver</w>": 6953,
        " bullet</w>": 6954,
        "ews</w>": 6955,
        " ya</w>": 6956,
        " report</w>": 6957,
        " fair": 6958,
        " advent": 6959,
        " hiding</w>": 6960,
        " drove</w>": 6961,
        " emer": 6962,
        ".com": 6963,
        " perm": 6964,
        " target</w>": 6965,
        "yn": 6966,
        " chuckled</w>": 6967,
        " bud": 6968,
        "ightened</w>": 6969,
        " sand</w>": 6970,
        " grip</w>": 6971,
        " amazing</w>": 6972,
        " auth": 6973,
        " source</w>": 6974,
        " sides</w>": 6975,
        "atched</w>": 6976,
        " cracked</w>": 6977,
        "arded</w>": 6978,
        " sending</w>": 6979,
        " polit": 6980,
        " \n \n One</w>": 6981,
        " physical</w>": 6982,
        " twisted</w>": 6983,
        "ius</w>": 6984,
        "ularly</w>": 6985,
        " Par": 6986,
        " build</w>": 6987,
        " cow": 6988,
        "divid": 6989,
        " Sa": 6990,
        "ket</w>": 6991,
        " research</w>": 6992,
        "pected</w>": 6993,
        "illy</w>": 6994,
        " prev": 6995,
        " whose</w>": 6996,
        " cast</w>": 6997,
        "estly</w>": 6998,
        " wings</w>": 6999,
        " instantly</w>": 7000,
        " parts</w>": 7001,
        " pen": 7002,
        " slight</w>": 7003,
        " hat</w>": 7004,
        " cham": 7005,
        "eph": 7006,
        " elev": 7007,
        " fort": 7008,
        " bought</w>": 7009,
        " Mo": 7010,
        "ES": 7011,
        "aws</w>": 7012,
        ".com/": 7013,
        " hy": 7014,
        " hung": 7015,
        " mountain</w>": 7016,
        " destr": 7017,
        "key</w>": 7018,
        " relief</w>": 7019,
        " inclu": 7020,
        "esterday</w>": 7021,
        " base</w>": 7022,
        " thanks</w>": 7023,
        " support</w>": 7024,
        " interrupted</w>": 7025,
        " \n \n U": 7026,
        " mater": 7027,
        " Dev": 7028,
        " impl": 7029,
        " excited</w>": 7030,
        " bridge</w>": 7031,
        " Peter</w>": 7032,
        " current</w>": 7033,
        " silently</w>": 7034,
        "ections</w>": 7035,
        " AI</w>": 7036,
        " twice</w>": 7037,
        " stage</w>": 7038,
        " half-": 7039,
        "itable</w>": 7040,
        " IP</w>": 7041,
        "vel</w>": 7042,
        " crossed</w>": 7043,
        "ffed</w>": 7044,
        " 100</w>": 7045,
        " cave</w>": 7046,
        " cheek</w>": 7047,
        "des</w>": 7048,
        "ewed</w>": 7049,
        "gger</w>": 7050,
        "ac</w>": 7051,
        " ends</w>": 7052,
        " fist</w>": 7053,
        " App": 7054,
        " birth</w>": 7055,
        " offered</w>": 7056,
        " nowhere</w>": 7057,
        " Sur": 7058,
        " obviously</w>": 7059,
        "eness</w>": 7060,
        " does": 7061,
        " bank</w>": 7062,
        " Gra": 7063,
        " driving</w>": 7064,
        "gle</w>": 7065,
        "val</w>": 7066,
        " data</w>": 7067,
        " obvious</w>": 7068,
        " prison</w>": 7069,
        " appear</w>": 7070,
        " removed</w>": 7071,
        " events</w>": 7072,
        " orange</w>": 7073,
        "ep</w>": 7074,
        " smiles</w>": 7075,
        " event</w>": 7076,
        "uclear</w>": 7077,
        " anno": 7078,
        " explained</w>": 7079,
        "itter</w>": 7080,
        "arc": 7081,
        " storm</w>": 7082,
        " pist": 7083,
        " previous</w>": 7084,
        "oning</w>": 7085,
        " bitch</w>": 7086,
        " Frank</w>": 7087,
        "ete</w>": 7088,
        " silver</w>": 7089,
        " distant</w>": 7090,
        "ason</w>": 7091,
        "omas</w>": 7092,
        " kiss</w>": 7093,
        " Never</w>": 7094,
        " warm": 7095,
        " crack</w>": 7096,
        " rich</w>": 7097,
        " swear</w>": 7098,
        "therwise</w>": 7099,
        " unknown</w>": 7100,
        " approach": 7101,
        " rifle</w>": 7102,
        "over</w>": 7103,
        "neath</w>": 7104,
        " individ": 7105,
        "s*</w>": 7106,
        " remaining</w>": 7107,
        " seemingly</w>": 7108,
        " fault</w>": 7109,
        " waves</w>": 7110,
        " Cal": 7111,
        "ero</w>": 7112,
        " uncom": 7113,
        " horrible</w>": 7114,
        " law</w>": 7115,
        " carry</w>": 7116,
        " search</w>": 7117,
        " reaching</w>": 7118,
        " population</w>": 7119,
        " general</w>": 7120,
        "s/": 7121,
        " horiz": 7122,
        " pill": 7123,
        "AS": 7124,
        " Tur": 7125,
        " games</w>": 7126,
        " kid": 7127,
        " multi": 7128,
        " fant": 7129,
        "jects</w>": 7130,
        " blood": 7131,
        " floating</w>": 7132,
        "ancy</w>": 7133,
        " movement</w>": 7134,
        " rush</w>": 7135,
        " tick": 7136,
        " bigger</w>": 7137,
        " Ho": 7138,
        " pants</w>": 7139,
        " replaced</w>": 7140,
        "enever</w>": 7141,
        " killer</w>": 7142,
        " chall": 7143,
        " pictures</w>": 7144,
        " Yet</w>": 7145,
        " fuck": 7146,
        " lab</w>": 7147,
        "shed</w>": 7148,
        " lunch</w>": 7149,
        " pack</w>": 7150,
        " confir": 7151,
        " glad</w>": 7152,
        " exec": 7153,
        " Wal": 7154,
        " ut": 7155,
        " whisper</w>": 7156,
        " knock</w>": 7157,
        " Mat": 7158,
        " godd": 7159,
        " separ": 7160,
        "ption</w>": 7161,
        "io</w>": 7162,
        " anywhere</w>": 7163,
        " wouldn</w>": 7164,
        " United</w>": 7165,
        "iver</w>": 7166,
        " shoot</w>": 7167,
        " self-": 7168,
        " celebr": 7169,
        " transf": 7170,
        " \n \n \n</w>": 7171,
        " hoo": 7172,
        " rang</w>": 7173,
        " chur": 7174,
        "bel": 7175,
        " blow</w>": 7176,
        " journey</w>": 7177,
        " pul": 7178,
        "tional</w>": 7179,
        " dirty</w>": 7180,
        " ride</w>": 7181,
        " leather</w>": 7182,
        " causing</w>": 7183,
        " beauty</w>": 7184,
        "idly</w>": 7185,
        " buzz": 7186,
        "ify</w>": 7187,
        " glowing</w>": 7188,
        " problems</w>": 7189,
        " faint</w>": 7190,
        " losing</w>": 7191,
        "ags</w>": 7192,
        " plastic</w>": 7193,
        " blinked</w>": 7194,
        " Ang": 7195,
        " fill</w>": 7196,
        "uffled</w>": 7197,
        " unn": 7198,
        " waved</w>": 7199,
        " frustr": 7200,
        " knocked</w>": 7201,
        "ial": 7202,
        " opportun": 7203,
        " charge</w>": 7204,
        "omes</w>": 7205,
        " guns</w>": 7206,
        " internet</w>": 7207,
        " alarm</w>": 7208,
        " bol": 7209,
        " drinking</w>": 7210,
        " skull</w>": 7211,
        "ap</w>": 7212,
        " Mr": 7213,
        " Gl": 7214,
        " ></w>": 7215,
        " stands</w>": 7216,
        " log": 7217,
        " peac": 7218,
        " brief</w>": 7219,
        " apolog": 7220,
        " speech</w>": 7221,
        "por": 7222,
        "ighty</w>": 7223,
        " setting</w>": 7224,
        "aul</w>": 7225,
        "ording</w>": 7226,
        " uncon": 7227,
        " accept</w>": 7228,
        " nightm": 7229,
        " scientists</w>": 7230,
        " warri": 7231,
        "ome": 7232,
        " fat</w>": 7233,
        " gas</w>": 7234,
        " discus": 7235,
        " calls</w>": 7236,
        " agreed</w>": 7237,
        " chose</w>": 7238,
        " president</w>": 7239,
        "What</w>": 7240,
        "essive</w>": 7241,
        " tort": 7242,
        " Three</w>": 7243,
        " trigger</w>": 7244,
        " obl": 7245,
        "kin</w>": 7246,
        " captain</w>": 7247,
        " pause</w>": 7248,
        " Harry</w>": 7249,
        "eans</w>": 7250,
        " wished</w>": 7251,
        "ES</w>": 7252,
        "ority</w>": 7253,
        "cl": 7254,
        "eed": 7255,
        "ased</w>": 7256,
        " less": 7257,
        " Heaven</w>": 7258,
        " higher</w>": 7259,
        "tured</w>": 7260,
        "urred</w>": 7261,
        " begun</w>": 7262,
        " drif": 7263,
        " narr": 7264,
        "tioned</w>": 7265,
        " uh</w>": 7266,
        " pointing</w>": 7267,
        " stand": 7268,
        " circle</w>": 7269,
        " constr": 7270,
        " pile</w>": 7271,
        " den": 7272,
        "time</w>": 7273,
        " smart</w>": 7274,
        " extra</w>": 7275,
        " waste</w>": 7276,
        " Is": 7277,
        " lungs</w>": 7278,
        "itude</w>": 7279,
        " cheeks</w>": 7280,
        "lies</w>": 7281,
        "osph": 7282,
        " four": 7283,
        " cop": 7284,
        " intro": 7285,
        " bad": 7286,
        " 30</w>": 7287,
        " poss": 7288,
        " pushing</w>": 7289,
        "eous</w>": 7290,
        "mm</w>": 7291,
        "e-</w>": 7292,
        " cit": 7293,
        " count</w>": 7294,
        " thinks</w>": 7295,
        " Nobody</w>": 7296,
        " cloud</w>": 7297,
        " science</w>": 7298,
        " honest</w>": 7299,
        " init": 7300,
        " ourselves</w>": 7301,
        " training</w>": 7302,
        " tit": 7303,
        "etime</w>": 7304,
        " dut": 7305,
        " roll</w>": 7306,
        " gigg": 7307,
        " match</w>": 7308,
        "unt": 7309,
        "int": 7310,
        " George</w>": 7311,
        " doesn</w>": 7312,
        " scan": 7313,
        " terror</w>": 7314,
        "pting</w>": 7315,
        " summer</w>": 7316,
        "IS</w>": 7317,
        " lock</w>": 7318,
        " command</w>": 7319,
        " echoed</w>": 7320,
        " underneath</w>": 7321,
        "fast</w>": 7322,
        " merc": 7323,
        "ucks</w>": 7324,
        " prim": 7325,
        "itler</w>": 7326,
        " motion</w>": 7327,
        "tb": 7328,
        " beings</w>": 7329,
        " meaning</w>": 7330,
        " 011": 7331,
        " wonder": 7332,
        " eight</w>": 7333,
        " proper": 7334,
        "onger</w>": 7335,
        "itions</w>": 7336,
        "ission</w>": 7337,
        " relation": 7338,
        " -": 7339,
        "lie</w>": 7340,
        "seless</w>": 7341,
        " grow": 7342,
        " flames</w>": 7343,
        " teacher</w>": 7344,
        "shing</w>": 7345,
        "ag</w>": 7346,
        "iction</w>": 7347,
        " Hen": 7348,
        " searching</w>": 7349,
        " flight</w>": 7350,
        " shor": 7351,
        " ripped</w>": 7352,
        " code</w>": 7353,
        " teen": 7354,
        "gest</w>": 7355,
        " expecting</w>": 7356,
        "ulated</w>": 7357,
        " shocked</w>": 7358,
        " dom": 7359,
        " perc": 7360,
        " pen</w>": 7361,
        " recently</w>": 7362,
        " embr": 7363,
        " boring</w>": 7364,
        "action</w>": 7365,
        " \n \n Al": 7366,
        " warmth</w>": 7367,
        " points</w>": 7368,
        "ingdom</w>": 7369,
        " Jos": 7370,
        " Rem": 7371,
        "ios": 7372,
        " ve": 7373,
        " endless</w>": 7374,
        " disappo": 7375,
        " mix": 7376,
        "ph</w>": 7377,
        " Take</w>": 7378,
        " moder": 7379,
        " effect</w>": 7380,
        " rever": 7381,
        " /r/": 7382,
        " Sec": 7383,
        " woods</w>": 7384,
        " quar": 7385,
        " added</w>": 7386,
        "inced</w>": 7387,
        " bor": 7388,
        " entrance</w>": 7389,
        " frame</w>": 7390,
        "erable</w>": 7391,
        " IT</w>": 7392,
        " roof</w>": 7393,
        " taught</w>": 7394,
        " damage</w>": 7395,
        " monsters</w>": 7396,
        " fish</w>": 7397,
        "ocal": 7398,
        " success": 7399,
        "rage</w>": 7400,
        "He</w>": 7401,
        " swung</w>": 7402,
        "elds</w>": 7403,
        " tells</w>": 7404,
        " assh": 7405,
        " sacrif": 7406,
        " press</w>": 7407,
        " excitement</w>": 7408,
        " discover</w>": 7409,
        " ending</w>": 7410,
        "mas</w>": 7411,
        " obser": 7412,
        "uing</w>": 7413,
        "usting</w>": 7414,
        " stumbled</w>": 7415,
        " loss</w>": 7416,
        " et": 7417,
        " lower</w>": 7418,
        ",000</w>": 7419,
        " wrist</w>": 7420,
        " members</w>": 7421,
        " respond</w>": 7422,
        " Whatever</w>": 7423,
        "pri": 7424,
        " wil": 7425,
        " girlfriend</w>": 7426,
        " based</w>": 7427,
        "arily</w>": 7428,
        " easier</w>": 7429,
        " bran": 7430,
        " peri": 7431,
        "ators</w>": 7432,
        " shifted</w>": 7433,
        "ument</w>": 7434,
        " thrown</w>": 7435,
        " fellow</w>": 7436,
        " 7</w>": 7437,
        " block</w>": 7438,
        " service</w>": 7439,
        " married</w>": 7440,
        "eek</w>": 7441,
        "bye</w>": 7442,
        " focused</w>": 7443,
        " Bu": 7444,
        " hardly</w>": 7445,
        " larger</w>": 7446,
        "ict": 7447,
        " depr": 7448,
        "ams</w>": 7449,
        " Don</w>": 7450,
        "ulf": 7451,
        " crash</w>": 7452,
        " warning</w>": 7453,
        " absolutely</w>": 7454,
        " Mike</w>": 7455,
        " happiness</w>": 7456,
        "aked</w>": 7457,
        " abandoned</w>": 7458,
        "aging</w>": 7459,
        "...</w>": 7460,
        " must": 7461,
        " task</w>": 7462,
        "oof</w>": 7463,
        "na</w>": 7464,
        " galaxy</w>": 7465,
        " cough": 7466,
        "sions</w>": 7467,
        " press": 7468,
        " cleared</w>": 7469,
        " decl": 7470,
        " horizon</w>": 7471,
        " disp": 7472,
        "escri": 7473,
        " remains</w>": 7474,
        " tea</w>": 7475,
        " flat</w>": 7476,
        " remain</w>": 7477,
        " pref": 7478,
        "urr": 7479,
        " empl": 7480,
        " nights</w>": 7481,
        " pistol</w>": 7482,
        " formed</w>": 7483,
        " loose</w>": 7484,
        " anx": 7485,
        "iel</w>": 7486,
        "tively</w>": 7487,
        "ract</w>": 7488,
        " breathe</w>": 7489,
        "shit</w>": 7490,
        " stretched</w>": 7491,
        "antic</w>": 7492,
        " major</w>": 7493,
        "isting</w>": 7494,
        " Life</w>": 7495,
        " leading</w>": 7496,
        " meat</w>": 7497,
        " English</w>": 7498,
        "—</w>": 7499,
        "ium</w>": 7500,
        " safety</w>": 7501,
        " Humans</w>": 7502,
        " *th": 7503,
        "bble</w>": 7504,
        " neither</w>": 7505,
        " nuclear</w>": 7506,
        "uted</w>": 7507,
        "steps</w>": 7508,
        " exch": 7509,
        " Mars</w>": 7510,
        "xes</w>": 7511,
        "stle</w>": 7512,
        " Could</w>": 7513,
        " collapsed</w>": 7514,
        " Joe</w>": 7515,
        "isc": 7516,
        " answers</w>": 7517,
        "ron": 7518,
        " rising</w>": 7519,
        " throwing</w>": 7520,
        " suicide</w>": 7521,
        " otherwise</w>": 7522,
        " 8</w>": 7523,
        " mean": 7524,
        " patter": 7525,
        " 15</w>": 7526,
        " sand": 7527,
        " yesterday</w>": 7528,
        "ge": 7529,
        "ller</w>": 7530,
        "ples</w>": 7531,
        "ique</w>": 7532,
        " World</w>": 7533,
        " HA": 7534,
        "gram</w>": 7535,
        " curious</w>": 7536,
        " Ger": 7537,
        "bility</w>": 7538,
        " immortal</w>": 7539,
        " helm": 7540,
        " river</w>": 7541,
        " mark</w>": 7542,
        " stronger</w>": 7543,
        " Bob</w>": 7544,
        " papers</w>": 7545,
        " enjoyed</w>": 7546,
        " careful</w>": 7547,
        " decades</w>": 7548,
        " willing</w>": 7549,
        " hungry</w>": 7550,
        " emotions</w>": 7551,
        " Ob": 7552,
        " falls</w>": 7553,
        " For": 7554,
        "ints</w>": 7555,
        "ares</w>": 7556,
        " Col": 7557,
        "lem": 7558,
        " six": 7559,
        "ishment</w>": 7560,
        " sev": 7561,
        " wear</w>": 7562,
        " spac": 7563,
        " shift</w>": 7564,
        " wild</w>": 7565,
        " instant</w>": 7566,
        " settled</w>": 7567,
        " \n \n All</w>": 7568,
        " land": 7569,
        "echan": 7570,
        " sees</w>": 7571,
        "icle</w>": 7572,
        " delic": 7573,
        " desperate</w>": 7574,
        " grinned</w>": 7575,
        " regret</w>": 7576,
        " sits</w>": 7577,
        " devil</w>": 7578,
        " Though</w>": 7579,
        " advanced</w>": 7580,
        " gentle</w>": 7581,
        " backwards</w>": 7582,
        "LL": 7583,
        " damned</w>": 7584,
        " project</w>": 7585,
        " custom": 7586,
        " rule</w>": 7587,
        " Hitler</w>": 7588,
        " dragged</w>": 7589,
        " rolling</w>": 7590,
        " millions</w>": 7591,
        " start": 7592,
        " \n \n ...</w>": 7593,
        " machines</w>": 7594,
        " Shit</w>": 7595,
        "IT</w>": 7596,
        "ON</w>": 7597,
        " Ed": 7598,
        " telev": 7599,
        " spell</w>": 7600,
        " bunch</w>": 7601,
        " forces</w>": 7602,
        " path": 7603,
        " chea": 7604,
        "isten</w>": 7605,
        " *h": 7606,
        " buildings</w>": 7607,
        "acle</w>": 7608,
        " mic": 7609,
        " smaller</w>": 7610,
        " \n \n [</w>": 7611,
        " admit</w>": 7612,
        "rog": 7613,
        " destruction</w>": 7614,
        " signs</w>": 7615,
        " letters</w>": 7616,
        "ental</w>": 7617,
        " void</w>": 7618,
        "ocalyp": 7619,
        " students</w>": 7620,
        " actions</w>": 7621,
        "AC": 7622,
        " dism": 7623,
        " Bill</w>": 7624,
        " closet</w>": 7625,
        "life</w>": 7626,
        " Without</w>": 7627,
        " deg": 7628,
        " Me</w>": 7629,
        "pe</w>": 7630,
        " welcome</w>": 7631,
        " Sim": 7632,
        "hat</w>": 7633,
        " blank</w>": 7634,
        " brothers</w>": 7635,
        " plans</w>": 7636,
        " ner": 7637,
        "ider</w>": 7638,
        " track</w>": 7639,
        " hat": 7640,
        "onde</w>": 7641,
        " comfort</w>": 7642,
        " interest</w>": 7643,
        " feed</w>": 7644,
        "inct</w>": 7645,
        " keys</w>": 7646,
        " Sam": 7647,
        " EU</w>": 7648,
        " horse</w>": 7649,
        " constant</w>": 7650,
        " struggled</w>": 7651,
        " had": 7652,
        " thun": 7653,
        " mental</w>": 7654,
        "mosph": 7655,
        " ignored</w>": 7656,
        " ate</w>": 7657,
        " centuries</w>": 7658,
        " becomes</w>": 7659,
        " Doctor</w>": 7660,
        " century</w>": 7661,
        " Father</w>": 7662,
        " exact</w>": 7663,
        " don": 7664,
        " keeps</w>": 7665,
        " Uh</w>": 7666,
        "ara</w>": 7667,
        " rout": 7668,
        " Really</w>": 7669,
        " released</w>": 7670,
        " \n \n Su": 7671,
        " *s": 7672,
        " CW</w>": 7673,
        " rum": 7674,
        "eal": 7675,
        "estig": 7676,
        " veh": 7677,
        "ica</w>": 7678,
        "RE</w>": 7679,
        " stops</w>": 7680,
        " Bra": 7681,
        " unif": 7682,
        " purple</w>": 7683,
        " emerg": 7684,
        " exclaimed</w>": 7685,
        "anta</w>": 7686,
        " dull</w>": 7687,
        " average</w>": 7688,
        " func": 7689,
        "atter</w>": 7690,
        "ney</w>": 7691,
        " Adam</w>": 7692,
        "OM": 7693,
        " cross</w>": 7694,
        " guar": 7695,
        " imagined</w>": 7696,
        "ological</w>": 7697,
        " corpse</w>": 7698,
        " opportunity</w>": 7699,
        " bet</w>": 7700,
        " consciousness</w>": 7701,
        " liquid</w>": 7702,
        " idiot</w>": 7703,
        "ionally</w>": 7704,
        " details</w>": 7705,
        " worlds</w>": 7706,
        "ogra": 7707,
        " bul": 7708,
        " raise</w>": 7709,
        " bastard</w>": 7710,
        " breakfast</w>": 7711,
        " bother</w>": 7712,
        " pink</w>": 7713,
        " Mc": 7714,
        " Kn": 7715,
        "iring</w>": 7716,
        "enched</w>": 7717,
        "rete</w>": 7718,
        " threat</w>": 7719,
        "oever</w>": 7720,
        "tim</w>": 7721,
        " necessary</w>": 7722,
        " heavily</w>": 7723,
        "www": 7724,
        " elevator</w>": 7725,
        " bored</w>": 7726,
        " dozen</w>": 7727,
        "iosity</w>": 7728,
        " Which</w>": 7729,
        " surely</w>": 7730,
        " insane</w>": 7731,
        " thirty</w>": 7732,
        " strike</w>": 7733,
        " \n \n If</w>": 7734,
        " chaos</w>": 7735,
        "esome</w>": 7736,
        "ommy</w>": 7737,
        " lonely</w>": 7738,
        " listened</w>": 7739,
        " nod</w>": 7740,
        " atmosph": 7741,
        " bite</w>": 7742,
        " ep": 7743,
        "aned</w>": 7744,
        " antic": 7745,
        " ridicul": 7746,
        " de": 7747,
        " Does</w>": 7748,
        "ert</w>": 7749,
        " split</w>": 7750,
        "yg": 7751,
        " rot": 7752,
        " cyc": 7753,
        " terr": 7754,
        "ena</w>": 7755,
        " Co": 7756,
        " art</w>": 7757,
        " shared</w>": 7758,
        " Any</w>": 7759,
        " smooth</w>": 7760,
        " flashed</w>": 7761,
        " pool</w>": 7762,
        " desperately</w>": 7763,
        " well": 7764,
        " poured</w>": 7765,
        " carrying</w>": 7766,
        " indeed</w>": 7767,
        "atory</w>": 7768,
        " drug</w>": 7769,
        " nurse</w>": 7770,
        " correct</w>": 7771,
        " Jef": 7772,
        " reflection</w>": 7773,
        " OF</w>": 7774,
        "yal</w>": 7775,
        "-g": 7776,
        " comfortable</w>": 7777,
        " weak": 7778,
        " pleas": 7779,
        " aftern": 7780,
        "TH": 7781,
        " curse</w>": 7782,
        " sick": 7783,
        "enny</w>": 7784,
        " demons</w>": 7785,
        " shower</w>": 7786,
        " buried</w>": 7787,
        "agn": 7788,
        "ewing</w>": 7789,
        " drawn</w>": 7790,
        " actual</w>": 7791,
        "thered</w>": 7792,
        " Mary</w>": 7793,
        "ka</w>": 7794,
        " breeze</w>": 7795,
        " understanding</w>": 7796,
        " impro": 7797,
        " original</w>": 7798,
        "pective</w>": 7799,
        " Hon": 7800,
        " doctors</w>": 7801,
        " depar": 7802,
        " survived</w>": 7803,
        " notes</w>": 7804,
        " Christmas</w>": 7805,
        " student</w>": 7806,
        " torn</w>": 7807,
        " dance</w>": 7808,
        " cities</w>": 7809,
        " capable</w>": 7810,
        " vibr": 7811,
        " fal": 7812,
        "ooks</w>": 7813,
        "tic</w>": 7814,
        " Soon</w>": 7815,
        " Rep": 7816,
        " switch</w>": 7817,
        " Ma": 7818,
        " unw": 7819,
        "www.": 7820,
        "agged</w>": 7821,
        " mechan": 7822,
        " spot": 7823,
        "erence</w>": 7824,
        " insp": 7825,
        "IS": 7826,
        " ghost</w>": 7827,
        " wis": 7828,
        " shows</w>": 7829,
        " particularly</w>": 7830,
        " Jake</w>": 7831,
        "asy</w>": 7832,
        " bigg": 7833,
        " result</w>": 7834,
        " States</w>": 7835,
        " FUC": 7836,
        " week": 7837,
        " Lucifer</w>": 7838,
        "entr": 7839,
        " lies</w>": 7840,
        " suffering</w>": 7841,
        " //www.": 7842,
        " Do": 7843,
        " victim</w>": 7844,
        "..": 7845,
        "father</w>": 7846,
        " pack": 7847,
        " footsteps</w>": 7848,
        " knight</w>": 7849,
        " robo": 7850,
        " innocent</w>": 7851,
        "ssing</w>": 7852,
        " flipped</w>": 7853,
        " wonderful</w>": 7854,
        " arch": 7855,
        " engin": 7856,
        " sidew": 7857,
        " chamber</w>": 7858,
        " robot</w>": 7859,
        " rough</w>": 7860,
        " trapped</w>": 7861,
        " slept</w>": 7862,
        " struc": 7863,
        "This</w>": 7864,
        " Thr": 7865,
        " landing</w>": 7866,
        " rew": 7867,
        " transl": 7868,
        "ppy</w>": 7869,
        " accident": 7870,
        " \n \n Ch": 7871,
        " emotion</w>": 7872,
        "ables</w>": 7873,
        " bat": 7874,
        " blonde</w>": 7875,
        "uke</w>": 7876,
        "cil</w>": 7877,
        " bringing</w>": 7878,
        "ulate</w>": 7879,
        " Red</w>": 7880,
        " tied</w>": 7881,
        "aly": 7882,
        " IS</w>": 7883,
        " seriously</w>": 7884,
        " hadn</w>": 7885,
        " planned</w>": 7886,
        " program</w>": 7887,
        " Damn</w>": 7888,
        " Thomas</w>": 7889,
        "rian</w>": 7890,
        "ension</w>": 7891,
        " Ser": 7892,
        " desire</w>": 7893,
        " Make</w>": 7894,
        " pressure</w>": 7895,
        " terrified</w>": 7896,
        " spirit</w>": 7897,
        " planets</w>": 7898,
        " wound</w>": 7899,
        " fru": 7900,
        "eeded</w>": 7901,
        " horrif": 7902,
        "uh</w>": 7903,
        " gate</w>": 7904,
        " evidence</w>": 7905,
        " 12</w>": 7906,
        " Min": 7907,
        " exit</w>": 7908,
        " villain</w>": 7909,
        " solid</w>": 7910,
        "actic</w>": 7911,
        " deeper</w>": 7912,
        " embar": 7913,
        " slip</w>": 7914,
        " resour": 7915,
        " dude</w>": 7916,
        " social</w>": 7917,
        " television</w>": 7918,
        " heading</w>": 7919,
        " partner</w>": 7920,
        " draw</w>": 7921,
        " sex</w>": 7922,
        " describe</w>": 7923,
        " study</w>": 7924,
        "unted</w>": 7925,
        " 10": 7926,
        "sel</w>": 7927,
        "whel": 7928,
        " changes</w>": 7929,
        " Bat": 7930,
        " staff</w>": 7931,
        "ives</w>": 7932,
        " sink</w>": 7933,
        " throne</w>": 7934,
        " accepted</w>": 7935,
        " joined</w>": 7936,
        " Jer": 7937,
        " orders</w>": 7938,
        " deserve</w>": 7939,
        "earance</w>": 7940,
        " blind</w>": 7941,
        " approach</w>": 7942,
        "dest</w>": 7943,
        " wine</w>": 7944,
        " tail</w>": 7945,
        " hot": 7946,
        " Alex</w>": 7947,
        " recognize</w>": 7948,
        " cursed</w>": 7949,
        " Many</w>": 7950,
        " magn": 7951,
        " ster": 7952,
        " repres": 7953,
        " citiz": 7954,
        "eyed</w>": 7955,
        " plat": 7956,
        " biggest</w>": 7957,
        " difference</w>": 7958,
        " gray</w>": 7959,
        " member</w>": 7960,
        " merely</w>": 7961,
        " nation</w>": 7962,
        " rh": 7963,
        " \n \n (</w>": 7964,
        " afternoon</w>": 7965,
        " series</w>": 7966,
        " pin": 7967,
        " revol": 7968,
        " worn</w>": 7969,
        " ok</w>": 7970,
        " jer": 7971,
        " finds</w>": 7972,
        " concrete</w>": 7973,
        " suspic": 7974,
        " beard</w>": 7975,
        " ideas</w>": 7976,
        "HH": 7977,
        "alled</w>": 7978,
        " female</w>": 7979,
        " fail": 7980,
        "emon</w>": 7981,
        "empl": 7982,
        " Hel": 7983,
        " doorway</w>": 7984,
        " Sn": 7985,
        " record</w>": 7986,
        " pulls</w>": 7987,
        " Red": 7988,
        "itty</w>": 7989,
        " investig": 7990,
        " meal</w>": 7991,
        " surrounding</w>": 7992,
        "espite</w>": 7993,
        " bone</w>": 7994,
        " interested</w>": 7995,
        " promised</w>": 7996,
        " brilli": 7997,
        " signal</w>": 7998,
        " reminded</w>": 7999,
        " cancer</w>": 8000,
        " chin</w>": 8001,
        " encoun": 8002,
        " cost</w>": 8003,
        " subject</w>": 8004,
        " unh": 8005,
        " Le": 8006,
        " ordered</w>": 8007,
        "men</w>": 8008,
        " jaw</w>": 8009,
        " \n \n -": 8010,
        " location</w>": 8011,
        "My</w>": 8012,
        " laying</w>": 8013,
        " crit": 8014,
        " ai</w>": 8015,
        " former</w>": 8016,
        " flame</w>": 8017,
        " threat": 8018,
        " Stop</w>": 8019,
        " mortal</w>": 8020,
        " ignore</w>": 8021,
        " rock": 8022,
        " risk</w>": 8023,
        " pon": 8024,
        "enting</w>": 8025,
        "-sh": 8026,
        " feelings</w>": 8027,
        " myster": 8028,
        " \n And</w>": 8029,
        "sty</w>": 8030,
        " *w": 8031,
        " fore": 8032,
        " hill</w>": 8033,
        " yelling</w>": 8034,
        "aken</w>": 8035,
        " slee": 8036,
        " froze</w>": 8037,
        "ache</w>": 8038,
        " unb": 8039,
        " prove</w>": 8040,
        " AND</w>": 8041,
        "ouring</w>": 8042,
        " constantly</w>": 8043,
        " \n It</w>": 8044,
        " shame</w>": 8045,
        " shouting</w>": 8046,
        " Listen</w>": 8047,
        " childhood</w>": 8048,
        " isn</w>": 8049,
        " basement</w>": 8050,
        " boots</w>": 8051,
        " scar": 8052,
        " naked</w>": 8053,
        "oses</w>": 8054,
        " pet": 8055,
        "ebook</w>": 8056,
        " need": 8057,
        " ul": 8058,
        " opens</w>": 8059,
        " existed</w>": 8060,
        " sir": 8061,
        "min": 8062,
        " instruc": 8063,
        " mere</w>": 8064,
        " iron</w>": 8065,
        " closing</w>": 8066,
        " rocks</w>": 8067,
        " rubbed</w>": 8068,
        " Cor": 8069,
        "ptly</w>": 8070,
        " helmet</w>": 8071,
        "AN</w>": 8072,
        " birds</w>": 8073,
        " reco": 8074,
        " None</w>": 8075,
        " winter</w>": 8076,
        " dollars</w>": 8077,
        " plate</w>": 8078,
        " Jason</w>": 8079,
        " atmosphere</w>": 8080,
        " judge</w>": 8081,
        " popped</w>": 8082,
        " \n \n Suddenly</w>": 8083,
        " spun</w>": 8084,
        "anked</w>": 8085,
        " manage</w>": 8086,
        " bare</w>": 8087,
        "izza</w>": 8088,
        " 50</w>": 8089,
        " Very</w>": 8090,
        " North</w>": 8091,
        " Jul": 8092,
        " Str": 8093,
        " tossed</w>": 8094,
        " pages</w>": 8095,
        " vag": 8096,
        "tw": 8097,
        "coh": 8098,
        " access</w>": 8099,
        "ect": 8100,
        " tro": 8101,
        " climbed</w>": 8102,
        " infin": 8103,
        " useless</w>": 8104,
        " wall": 8105,
        "IC": 8106,
        " men": 8107,
        " \n \n Fr": 8108,
        " exhau": 8109,
        " Eventually</w>": 8110,
        " day": 8111,
        " deeply</w>": 8112,
        "ads</w>": 8113,
        " currently</w>": 8114,
        " ST": 8115,
        " tightly</w>": 8116,
        " shining</w>": 8117,
        " subm": 8118,
        " autom": 8119,
        " intervi": 8120,
        " greater</w>": 8121,
        " brow</w>": 8122,
        " extremely</w>": 8123,
        "duce</w>": 8124,
        " runs</w>": 8125,
        " freedom</w>": 8126,
        " kick</w>": 8127,
        " island</w>": 8128,
        "kind</w>": 8129,
        " *S": 8130,
        "tically</w>": 8131,
        "eets</w>": 8132,
        " Sun": 8133,
        " pil": 8134,
        " bent</w>": 8135,
        " ord": 8136,
        " potential</w>": 8137,
        " magical</w>": 8138,
        " nervously</w>": 8139,
        " blame</w>": 8140,
        "~~~~": 8141,
        " assass": 8142,
        " assumed</w>": 8143,
        " sake</w>": 8144,
        " shattered</w>": 8145,
        " vast</w>": 8146,
        " clicked</w>": 8147,
        " Henry</w>": 8148,
        " repeated</w>": 8149,
        "gue</w>": 8150,
        " account</w>": 8151,
        "ormed</w>": 8152,
        " overwhel": 8153,
        " facing</w>": 8154,
        " civilization</w>": 8155,
        " Ok</w>": 8156,
        " attempted</w>": 8157,
        " relationship</w>": 8158,
        " distrac": 8159,
        " disease</w>": 8160,
        " Too</w>": 8161,
        " grand</w>": 8162,
        " price</w>": 8163,
        " fool</w>": 8164,
        " utt": 8165,
        " employ": 8166,
        " illum": 8167,
        "ortality</w>": 8168,
        "enger</w>": 8169,
        " Looking</w>": 8170,
        " normally</w>": 8171,
        "irr": 8172,
        " *m": 8173,
        " somewhat</w>": 8174,
        "ompl": 8175,
        " dies</w>": 8176,
        " palm</w>": 8177,
        " whenever</w>": 8178,
        "eption</w>": 8179,
        " gasped</w>": 8180,
        " you.</w>": 8181,
        " hitting</w>": 8182,
        " daily</w>": 8183,
        "imm": 8184,
        " unless</w>": 8185,
        " faced</w>": 8186,
        " Devil</w>": 8187,
        "athan</w>": 8188,
        " countless</w>": 8189,
        " York</w>": 8190,
        " famil": 8191,
        " audience</w>": 8192,
        " ME</w>": 8193,
        " display</w>": 8194,
        " totally</w>": 8195,
        " intelligence</w>": 8196,
        "hh</w>": 8197,
        " characters</w>": 8198,
        "====": 8199,
        " colors</w>": 8200,
        " tore</w>": 8201,
        " Fine</w>": 8202,
        "ales</w>": 8203,
        " distur": 8204,
        " pris": 8205,
        " arrive</w>": 8206,
        " systems</w>": 8207,
        " lay": 8208,
        " pace</w>": 8209,
        " bird</w>": 8210,
        " awkward</w>": 8211,
        " bench</w>": 8212,
        "uts</w>": 8213,
        " sadness</w>": 8214,
        " awoke</w>": 8215,
        " ess": 8216,
        " cared</w>": 8217,
        " flu": 8218,
        " anticip": 8219,
        " \n \n Oh</w>": 8220,
        " beach</w>": 8221,
        " Tim</w>": 8222,
        " https</w>": 8223,
        "orting</w>": 8224,
        "rets</w>": 8225,
        " belt</w>": 8226,
        " wer": 8227,
        " approaching</w>": 8228,
        " tries</w>": 8229,
        " NOT</w>": 8230,
        " castle</w>": 8231,
        " wizard</w>": 8232,
        " hang</w>": 8233,
        "oot</w>": 8234,
        " greeted</w>": 8235,
        " Li": 8236,
        "ulations</w>": 8237,
        " sip</w>": 8238,
        " fixed</w>": 8239,
        " double</w>": 8240,
        " huh</w>": 8241,
        " wishes</w>": 8242,
        " reveal</w>": 8243,
        " murm": 8244,
        " alley</w>": 8245,
        " telep": 8246,
        " silly</w>": 8247,
        " consider</w>": 8248,
        " \n \n On</w>": 8249,
        "001": 8250,
        " boat</w>": 8251,
        " tex": 8252,
        " mention</w>": 8253,
        " fucked</w>": 8254,
        " struggle</w>": 8255,
        " tie</w>": 8256,
        "eaking</w>": 8257,
        "ipment</w>": 8258,
        "ieved</w>": 8259,
        "********": 8260,
        " bound</w>": 8261,
        " Will": 8262,
        " refused</w>": 8263,
        " Paul</w>": 8264,
        " file</w>": 8265,
        "-y": 8266,
        " Jan": 8267,
        " billion</w>": 8268,
        " beating</w>": 8269,
        " curiosity</w>": 8270,
        " fake</w>": 8271,
        " frowned</w>": 8272,
        " sav": 8273,
        " helping</w>": 8274,
        " covering</w>": 8275,
        " Again</w>": 8276,
        " laun": 8277,
        " modern</w>": 8278,
        "elve</w>": 8279,
        " scientist</w>": 8280,
        " release</w>": 8281,
        "go</w>": 8282,
        "onn": 8283,
        " loudly</w>": 8284,
        " Charlie</w>": 8285,
        " creation</w>": 8286,
        "icky</w>": 8287,
        "orious</w>": 8288,
        "eline</w>": 8289,
        "elet": 8290,
        " carp": 8291,
        "eth": 8292,
        " embarra": 8293,
        " tunn": 8294,
        "amming</w>": 8295,
        "like</w>": 8296,
        " sell</w>": 8297,
        "asc": 8298,
        " libr": 8299,
        " Sil": 8300,
        " Eur": 8301,
        " Can": 8302,
        " background</w>": 8303,
        " dogs</w>": 8304,
        " patient</w>": 8305,
        "to": 8306,
        " square</w>": 8307,
        "olate</w>": 8308,
        " transp": 8309,
        " wanting</w>": 8310,
        " swea": 8311,
        "ren": 8312,
        "itors</w>": 8313,
        " picking</w>": 8314,
        " Rich": 8315,
        " concerned</w>": 8316,
        " bullets</w>": 8317,
        " blew</w>": 8318,
        " kingdom</w>": 8319,
        " \n \n *I</w>": 8320,
        " medical</w>": 8321,
        " agree</w>": 8322,
        " princess</w>": 8323,
        " desert</w>": 8324,
        "inating</w>": 8325,
        " Mor": 8326,
        " moc": 8327,
        " shield</w>": 8328,
        " tower</w>": 8329,
        "pare</w>": 8330,
        " swir": 8331,
        " Black</w>": 8332,
        "ocalypse</w>": 8333,
        " convince</w>": 8334,
        " Jac": 8335,
        " waking</w>": 8336,
        "ound": 8337,
        "erred</w>": 8338,
        "chers</w>": 8339,
        " Sou": 8340,
        "ict</w>": 8341,
        " re-": 8342,
        "phone</w>": 8343,
        " alcoh": 8344,
        "ivered</w>": 8345,
        " mountains</w>": 8346,
        " broad": 8347,
        " Had</w>": 8348,
        " twent": 8349,
        " recognized</w>": 8350,
        " occup": 8351,
        " danger</w>": 8352,
        " camp</w>": 8353,
        "ule</w>": 8354,
        " Since</w>": 8355,
        " impact</w>": 8356,
        " paying</w>": 8357,
        " routine</w>": 8358,
        "back</w>": 8359,
        "usty</w>": 8360,
        " zombie</w>": 8361,
        " Marc": 8362,
        " meth": 8363,
        " leaning</w>": 8364,
        " Santa</w>": 8365,
        " steady</w>": 8366,
        " swallowed</w>": 8367,
        " kissed</w>": 8368,
        " revealing</w>": 8369,
        " movies</w>": 8370,
        " *I</w>": 8371,
        " Bet": 8372,
        " monitor</w>": 8373,
        "dro": 8374,
        " pride</w>": 8375,
        " visible</w>": 8376,
        " owner</w>": 8377,
        " male</w>": 8378,
        "ician</w>": 8379,
        " weal": 8380,
        "wor": 8381,
        "emies</w>": 8382,
        "yan</w>": 8383,
        " accidentally</w>": 8384,
        "RO": 8385,
        "ruce</w>": 8386,
        " kinda</w>": 8387,
        " assist": 8388,
        " ridiculous</w>": 8389,
        " work": 8390,
        " restaur": 8391,
        " Christ</w>": 8392,
        "otic</w>": 8393,
        " changing</w>": 8394,
        "ons": 8395,
        " spoken</w>": 8396,
        "^^": 8397,
        "jected</w>": 8398,
        "sity</w>": 8399,
        " escaped</w>": 8400,
        " issue</w>": 8401,
        " lift</w>": 8402,
        "ability</w>": 8403,
        " attached</w>": 8404,
        " asshole</w>": 8405,
        " colon": 8406,
        " ty": 8407,
        " explosion</w>": 8408,
        " SH": 8409,
        " results</w>": 8410,
        " stun": 8411,
        "iday</w>": 8412,
        "AM": 8413,
        "eeing</w>": 8414,
        "ongst</w>": 8415,
        " emergency</w>": 8416,
        " limbs</w>": 8417,
        " claim</w>": 8418,
        " drawing</w>": 8419,
        " General</w>": 8420,
        " church</w>": 8421,
        " spine</w>": 8422,
        " heroes</w>": 8423,
        " Coun": 8424,
        "iest</w>": 8425,
        " click</w>": 8426,
        " NO</w>": 8427,
        "arn": 8428,
        "-like</w>": 8429,
        ":3": 8430,
        " inev": 8431,
        " Master</w>": 8432,
        " eternal</w>": 8433,
        "aper</w>": 8434,
        " superher": 8435,
        "athy</w>": 8436,
        "go": 8437,
        "ball</w>": 8438,
        " weather</w>": 8439,
        " figures</w>": 8440,
        " lets</w>": 8441,
        " ens": 8442,
        " Jimmy</w>": 8443,
        " drugs</w>": 8444,
        " stopping</w>": 8445,
        "tle</w>": 8446,
        " lowered</w>": 8447,
        " \n \n Well</w>": 8448,
        "inting</w>": 8449,
        "atching</w>": 8450,
        " scen": 8451,
        "art": 8452,
        "ing*</w>": 8453,
        " somebody</w>": 8454,
        " rare</w>": 8455,
        "elly</w>": 8456,
        " everybody</w>": 8457,
        " rate</w>": 8458,
        " paint</w>": 8459,
        "anging</w>": 8460,
        " Over</w>": 8461,
        " Dis": 8462,
        " As": 8463,
        " honey</w>": 8464,
        " trained</w>": 8465,
        " duty</w>": 8466,
        " receive</w>": 8467,
        " sunlight</w>": 8468,
        " dare</w>": 8469,
        " ..</w>": 8470,
        " respect</w>": 8471,
        " wrink": 8472,
        " developed</w>": 8473,
        "We</w>": 8474,
        " hers</w>": 8475,
        " gras": 8476,
        " Tra": 8477,
        "even</w>": 8478,
        " plenty</w>": 8479,
        "attering</w>": 8480,
        " US</w>": 8481,
        " revealed</w>": 8482,
        " cheap</w>": 8483,
        " intelligent</w>": 8484,
        "dian</w>": 8485,
        " relax": 8486,
        "eas": 8487,
        " camp": 8488,
        " *d": 8489,
        " Dark</w>": 8490,
        "aming</w>": 8491,
        "iced</w>": 8492,
        "ading</w>": 8493,
        " Said</w>": 8494,
        "ashing</w>": 8495,
        "icken</w>": 8496,
        " engine</w>": 8497,
        "rors</w>": 8498,
        " flowers</w>": 8499,
        " experienced</w>": 8500,
        " lord</w>": 8501,
        " conqu": 8502,
        " dumb</w>": 8503,
        " honestly</w>": 8504,
        "ment": 8505,
        " Af": 8506,
        " ham": 8507,
        " shooting</w>": 8508,
        " mankind</w>": 8509,
        " knocking</w>": 8510,
        "atively</w>": 8511,
        " realised</w>": 8512,
        " fail</w>": 8513,
        " gates</w>": 8514,
        " \n \n On": 8515,
        " medic": 8516,
        " eyeb": 8517,
        " mal": 8518,
        " \n \n ***</w>": 8519,
        " unus": 8520,
        " gravity</w>": 8521,
        "umber</w>": 8522,
        " chem": 8523,
        " squee": 8524,
        " trick</w>": 8525,
        " fat": 8526,
        " Sk": 8527,
        " awful</w>": 8528,
        " pizza</w>": 8529,
        "ult": 8530,
        " pleasure</w>": 8531,
        " bomb</w>": 8532,
        " proper</w>": 8533,
        " lap</w>": 8534,
        " afford</w>": 8535,
        " Although</w>": 8536,
        " tip</w>": 8537,
        " wan</w>": 8538,
        " balance</w>": 8539,
        " cries</w>": 8540,
        "uming</w>": 8541,
[...]
